<unk>	0
<s>	0
</s>	0
CLS	0
PAD	0
MASK	0
CMA	0
EOS	0
UNK	0
▁이	-0
▁1	-1
으로	-2
에서	-3
▁있	-4
▁2	-5
▁그	-6
▁대	-7
▁사	-8
이다	-9
었다	-10
▁지	-11
▁수	-12
▁가	-13
▁시	-14
▁전	-15
▁기	-16
▁20	-17
하였	-18
▁아	-19
▁있다	-20
▁19	-21
▁다	-22
했다	-23
하는	-24
▁제	-25
▁일	-26
▁한	-27
▁중	-28
▁정	-29
▁주	-30
▁것	-31
▁하	-32
▁자	-33
하였다	-34
되었다	-35
▁공	-36
▁인	-37
▁위	-38
▁경	-39
▁유	-40
하고	-41
▁보	-42
▁등	-43
▁부	-44
▁3	-45
하여	-46
▁조	-47
으며	-48
▁미	-49
▁동	-50
▁나	-51
▁모	-52
▁연	-53
▁선	-54
▁의	-55
▁영	-56
에는	-57
▁발	-58
한다	-59
▁소	-60
▁오	-61
▁마	-62
▁개	-63
▁고	-64
▁세	-65
▁구	-66
▁201	-67
▁도	-68
▁상	-69
▁비	-70
▁국	-71
▁서	-72
▁스	-73
▁후	-74
▁때	-75
▁여	-76
▁200	-77
▁성	-78
▁관	-79
▁해	-80
▁있는	-81
▁4	-82
▁신	-83
▁프	-84
▁대한	-85
부터	-86
▁방	-87
▁5	-88
지만	-89
되어	-90
▁또	-91
▁만	-92
▁않	-93
까지	-94
▁통	-95
▁역	-96
▁장	-97
▁무	-98
▁바	-99
에게	-100
▁남	-101
▁같	-102
▁현	-103
▁내	-104
▁교	-105
▁문	-106
▁출	-107
▁거	-108
▁《	-109
▁결	-110
적인	-111
된다	-112
적으로	-113
이라	-114
▁우	-115
▁포	-116
▁불	-117
국의	-118
▁최	-119
▁진	-120
▁원	-121
▁생	-122
▁작	-123
▁당	-124
▁어	-125
▁6	-126
▁강	-127
▁노	-128
▁알	-129
▁반	-130
▁계	-131
▁따	-132
▁10	-133
▁받	-134
면서	-135
년에	-136
학교	-137
들이	-138
▁없	-139
▁말	-140
▁분	-141
되었	-142
▁파	-143
▁사용	-144
▁'	-145
▁두	-146
▁실	-147
에서는	-148
들은	-149
▁7	-150
▁배	-151
▁이후	-152
▁명	-153
▁8	-154
하기	-155
▁함	-156
▁단	-157
▁리	-158
▁한다	-159
하게	-160
▁예	-161
▁일본	-162
▁재	-163
▁설	-164
▁차	-165
▁안	-166
▁에	-167
았다	-168
▁다음	-169
▁특	-170
으나	-171
▁종	-172
▁요	-173
▁9	-174
▁데	-175
▁독	-176
▁군	-177
▁초	-178
▁로	-179
▁그는	-180
▁많	-181
▁추	-182
▁되었다	-183
▁199	-184
▁활	-185
▁감	-186
▁대한민	-187
이며	-188
▁태	-189
00	-190
리아	-191
▁입	-192
▁다른	-193
▁건	-194
▁카	-195
▁라	-196
▁형	-197
▁같은	-198
▁지역	-199
▁운	-200
▁더	-201
▁김	-202
▁매	-203
▁그리	-204
▁18	-205
▁참	-206
▁타	-207
▁위해	-208
는데	-209
▁평	-210
▁및	-211
▁양	-212
스트	-213
▁과	-214
▁적	-215
▁행	-216
주의	-217
▁12	-218
▁열	-219
들어	-220
▁음	-221
▁미국	-222
들의	-223
▁본	-224
▁산	-225
▁때문	-226
▁시작	-227
▁승	-228
▁북	-229
들을	-230
▁왕	-231
라는	-232
기도	-233
or	-234
▁번	-235
▁프로	-236
▁올	-237
▁총	-238
▁크	-239
▁그러	-240
되는	-241
▁호	-242
▁피	-243
▁회	-244
▁각	-245
▁따라	-246
▁또한	-247
▁화	-248
하며	-249
▁코	-250
▁함께	-251
▁임	-252
▁사람	-253
레이	-254
▁베	-255
▁변	-256
▁목	-257
▁외	-258
▁표	-259
▁처	-260
▁속	-261
라고	-262
▁물	-263
▁11	-264
la	-265
▁달	-266
▁경우	-267
▁위치	-268
▁자신	-269
이나	-270
▁현재	-271
▁영화	-272
▁직	-273
▁약	-274
▁그의	-275
▁새	-276
▁민	-277
▁이름	-278
▁학	-279
하지	-280
▁간	-281
시아	-282
▁f	-283
하다	-284
▁당시	-285
되고	-286
▁집	-287
기에	-288
▁기록	-289
▁가장	-290
▁게	-291
▁저	-292
기를	-293
▁선수	-294
▁하나	-295
▁그러나	-296
▁때문에	-297
에도	-298
▁드	-299
▁세계	-300
▁198	-301
▁항	-302
▁사이	-303
▁점	-304
스는	-305
리는	-306
▁한국	-307
▁것을	-308
▁S	-309
mu	-310
▁뒤	-311
▁존	-312
▁for	-313
▁체	-314
▁했다	-315
▁확	-316
였다	-317
▁있으며	-318
스의	-319
mula	-320
▁조선	-321
▁것으로	-322
▁formula	-323
▁메	-324
▁있었다	-325
▁된다	-326
지는	-327
▁의해	-328
▁국가	-329
이라고	-330
▁것이	-331
▁박	-332
▁또는	-333
▁복	-334
▁못	-335
일에	-336
▁축	-337
▁A	-338
▁청	-339
▁투	-340
▁그리고	-341
▁토	-342
▁통해	-343
▁활동	-344
▁레	-345
▁필	-346
졌다	-347
▁천	-348
하였고	-349
▁광	-350
▁프랑	-351
▁법	-352
▁합	-353
▁철	-354
▁하는	-355
▁15	-356
▁브	-357
▁F	-358
했고	-359
▁판	-360
▁근	-361
▁M	-362
▁증	-363
리를	-364
▁편	-365
▁창	-366
▁많은	-367
▁것이다	-368
▁야	-369
▁C	-370
▁16	-371
▁첫	-372
▁살	-373
▁치	-374
▁들어	-375
▁언	-376
이라는	-377
▁돌	-378
▁금	-379
▁삼	-380
▁높	-381
▁디	-382
▁다음과	-383
▁197	-384
하면서	-385
▁아니	-386
▁버	-387
▁심	-388
▁‘	-389
사를	-390
▁다시	-391
▁뜻	-392
▁쓰	-393
는다	-394
▁경기	-395
▁있었	-396
▁충	-397
▁대해	-398
▁가지	-399
▁할	-400
이었다	-401
랜드	-402
▁여러	-403
▁황	-404
▁대한민국	-405
▁완	-406
▁플	-407
이는	-408
▁17	-409
대로	-410
▁되	-411
상을	-412
▁대한민국의	-413
▁병	-414
▁포함	-415
▁서울	-416
▁은	-417
로서	-418
▁애	-419
▁T	-420
▁네	-421
▁196	-422
▁독일	-423
이고	-424
▁큰	-425
▁트	-426
▁하였다	-427
되었고	-428
개의	-429
▁죽	-430
장을	-431
▁모두	-432
▁연구	-433
▁페	-434
▁백	-435
▁팀	-436
km	-437
보다	-438
▁사회	-439
위를	-440
▁패	-441
성을	-442
▁도시	-443
▁순	-444
▁용	-445
지를	-446
▁모든	-447
▁권	-448
▁루	-449
▁처음	-450
▁194	-451
▁취	-452
▁알려	-453
▁채	-454
▁이루	-455
▁클	-456
▁규	-457
▁등이	-458
▁일부	-459
▁친	-460
▁배우	-461
▁중국	-462
▁시즌	-463
▁제작	-464
이었	-465
대의	-466
▁감독	-467
▁인구	-468
▁등의	-469
▁대표	-470
자가	-471
▁전쟁	-472
▁14	-473
▁정부	-474
회의	-475
▁이용	-476
리에	-477
년부터	-478
▁식	-479
▁히	-480
니아	-481
년에는	-482
도의	-483
했으며	-484
▁있어	-485
▁위한	-486
▁존재	-487
▁끝	-488
▁정치	-489
▁구성	-490
▁손	-491
▁K	-492
▁축구	-493
력을	-494
▁이어	-495
부분	-496
도로	-497
▁영국	-498
나라	-499
▁아이	-500
▁프랑스	-501
났다	-502
거나	-503
▁것은	-504
▁자신의	-505
▁D	-506
이자	-507
▁중심	-508
▁허	-509
▁즉	-510
▁이상	-511
시에	-512
라이	-513
▁맡	-514
▁B	-515
▁일반	-516
▁문제	-517
▁같다	-518
▁13	-519
▁나타	-520
▁I	-521
▁미국의	-522
▁작품	-523
er	-524
기의	-525
▁길	-526
▁앞	-527
▁테	-528
등학교	-529
로는	-530
▁논	-531
▁개발	-532
▁맞	-533
▁가능	-534
▁이러	-535
▁동안	-536
▁195	-537
하였으며	-538
▁뉴	-539
▁온	-540
▁걸	-541
▁환	-542
▁러	-543
▁곳	-544
▁이러한	-545
▁갖	-546
▁발견	-547
▁리그	-548
▁새로	-549
기는	-550
▁하지만	-551
▁접	-552
▁등을	-553
▁월	-554
▁이는	-555
▁주장	-556
▁캐	-557
▁발표	-558
▁면	-559
▁위치한	-560
▁게임	-561
▁준	-562
다고	-563
되었으며	-564
년대	-565
사가	-566
▁별	-567
다는	-568
▁향	-569
들과	-570
▁되어	-571
서는	-572
도록	-573
▁〈	-574
하면	-575
통령	-576
로부터	-577
▁농	-578
▁태어	-579
자의	-580
▁밀	-581
시키	-582
군의	-583
in	-584
기가	-585
▁방송	-586
리가	-587
▁국제	-588
▁잘	-589
▁이를	-590
스를	-591
▁검	-592
▁협	-593
▁지방	-594
▁대부분	-595
월에	-596
▁볼	-597
▁의미	-598
위원	-599
000	-600
▁하고	-601
▁공격	-602
에서도	-603
▁밝	-604
▁섬	-605
▁번째	-606
정을	-607
▁담	-608
▁P	-609
▁2010	-610
▁귀	-611
▁폭	-612
▁영향	-613
▁사건	-614
▁전투	-615
▁문화	-616
▁음악	-617
자는	-618
▁육	-619
어진	-620
▁막	-621
▁대통령	-622
▁얻	-623
년까지	-624
명의	-625
했던	-626
▁193	-627
▁30	-628
란드	-629
▁최초	-630
▁대학	-631
성이	-632
쪽으로	-633
자를	-634
▁대회	-635
▁참여	-636
20	-637
▁사망	-638
도를	-639
스가	-640
들에게	-641
▁홍	-642
리카	-643
인의	-644
▁L	-645
▁특히	-646
▁진행	-647
▁설립	-648
▁이에	-649
▁설치	-650
▁극	-651
▁프로그	-652
세기	-653
▁우승	-654
와의	-655
▁결과	-656
▁석	-657
도는	-658
▁발생	-659
▁날	-660
▁줄	-661
▁U	-662
▁일어	-663
▁앨	-664
자로	-665
르는	-666
▁관계	-667
▁효	-668
리그	-669
▁역사	-670
대를	-671
▁관련	-672
on	-673
이트	-674
▁그녀	-675
▁곡	-676
리의	-677
리스	-678
▁책	-679
▁키	-680
▁된	-681
드는	-682
▁“	-683
▁절	-684
▁만들어	-685
▁발매	-686
▁다양	-687
▁유럽	-688
렸다	-689
▁N	-690
▁생각	-691
▁같이	-692
▁독립	-693
▁러시아	-694
▁사실	-695
▁형태	-696
▁경제	-697
▁2008	-698
▁봉	-699
원을	-700
▁암	-701
요한	-702
▁이전	-703
▁주로	-704
▁인해	-705
▁폐	-706
▁갈	-707
▁새로운	-708
▁와	-709
므로	-710
▁교육	-711
▁받아	-712
▁부분	-713
▁이것	-714
▁받았다	-715
가지	-716
▁시간	-717
▁소속	-718
식을	-719
▁측	-720
▁있고	-721
과의	-722
▁자유	-723
▁좋	-724
▁기술	-725
▁G	-726
▁질	-727
an	-728
▁글	-729
▁이탈	-730
▁계속	-731
▁<	-732
사의	-733
▁중앙	-734
▁침	-735
▁2007	-736
▁R	-737
▁출신	-738
디오	-739
▁헤	-740
-1	-741
▁2009	-742
부의	-743
▁잡	-744
▁지정	-745
인이	-746
사는	-747
▁2011	-748
▁참가	-749
▁프로그램	-750
▁데뷔	-751
▁블	-752
▁등장	-753
▁있던	-754
▁수도	-755
▁상태	-756
림픽	-757
▁구조	-758
▁로마	-759
▁벌	-760
▁2012	-761
▁결정	-762
번째	-763
▁머	-764
다가	-765
▁운영	-766
스터	-767
전을	-768
▁성공	-769
▁매우	-770
화국	-771
▁누	-772
▁범	-773
▁엔	-774
학자	-775
▁커	-776
▁탄	-777
▁아버	-778
▁않았다	-779
▁탈	-780
▁0	-781
기로	-782
으로서	-783
▁골	-784
명을	-785
▁넘	-786
▁가지고	-787
▁E	-788
▁25	-789
▁몇	-790
▁기준	-791
대에	-792
장이	-793
▁난	-794
▁이탈리아	-795
▁일본의	-796
▁송	-797
▁돌아	-798
▁2014	-799
▁혼	-800
하기도	-801
▁아들	-802
▁급	-803
▁고려	-804
도가	-805
▁191	-806
▁아니라	-807
▁선거	-808
라마	-809
리즈	-810
군은	-811
▁결국	-812
▁H	-813
▁타이	-814
▁찾	-815
▁생산	-816
▁올림픽	-817
▁차지	-818
처럼	-819
▁만들	-820
▁들	-821
▁2013	-822
해서	-823
프트	-824
했지만	-825
에서의	-826
▁000	-827
▁100	-828
▁한편	-829
이션	-830
왔다	-831
르크	-832
비아	-833
▁운동	-834
사로	-835
▁최고	-836
▁없다	-837
▁떨	-838
▁조직	-839
부에	-840
스와	-841
▁터	-842
▁악	-843
되지	-844
대학교	-845
▁출연	-846
장은	-847
하자	-848
권을	-849
▁않고	-850
▁해당	-851
▁없는	-852
▁윤	-853
운데	-854
▁싱	-855
▁행정	-856
수를	-857
▁니	-858
명이	-859
▁슈	-860
이지	-861
▁계획	-862
화를	-863
▁아래	-864
간의	-865
▁전체	-866
▁좌	-867
▁많이	-868
▁앨범	-869
성의	-870
냈다	-871
▁이유	-872
▁2015	-873
▁업	-874
▁내용	-875
선의	-876
▁2006	-877
▁지원	-878
▁192	-879
남도	-880
수의	-881
▁가리	-882
일부터	-883
▁유명	-884
이스	-885
장으로	-886
▁따르	-887
▁둘	-888
_1	-889
▁방법	-890
원의	-891
he	-892
▁가운데	-893
▁W	-894
▁21	-895
▁힘	-896
▁주요	-897
▁하여	-898
▁떠	-899
으로써	-900
▁빠	-901
▁역할	-902
나는	-903
▁후보	-904
지의	-905
▁케	-906
음을	-907
▁폴	-908
▁2018	-909
▁쿠	-910
▁2016	-911
▁라이	-912
▁제공	-913
▁음반	-914
▁국민	-915
▁다양한	-916
▁남아	-917
지가	-918
스템	-919
▁몸	-920
▁팔	-921
▁이루어	-922
진다	-923
▁거의	-924
▁대학교	-925
원은	-926
수가	-927
하던	-928
전에	-929
▁각각	-930
했으나	-931
스로	-932
FA	-933
어로	-934
▁표현	-935
원이	-936
▁모습	-937
자인	-938
▁않는다	-939
▁묘	-940
스타	-941
였던	-942
가는	-943
스크	-944
ar	-945
인다	-946
▁데이	-947
en	-948
▁잠	-949
▁컴	-950
하려	-951
하였으나	-952
▁연결	-953
▁인터	-954
▁2017	-955
리고	-956
됐다	-957
▁이름을	-958
인민	-959
▁콘	-960
▁헌	-961
▁붙	-962
지에	-963
▁졸	-964
사에	-965
▁월드	-966
▁격	-967
▁열린	-968
▁마지	-969
▁수상	-970
▁스페	-971
▁이미	-972
▁드라마	-973
▁출전	-974
▁알려져	-975
머니	-976
▁여성	-977
점을	-978
▁24	-979
으로는	-980
제로	-981
▁임명	-982
민주	-983
▁필요	-984
▁따라서	-985
운동	-986
▁스타	-987
▁-	-988
▁높은	-989
▁공식	-990
력이	-991
▁얼	-992
▁뛰	-993
▁경상	-994
으로부터	-995
▁칼	-996
어는	-997
▁영향을	-998
제를	-999
시켰	-1000
▁공개	-1001
▁직접	-1002
▁마지막	-1003
▁작은	-1004
군이	-1005
▁인정	-1006
어를	-1007
었고	-1008
대학	-1009
▁과정	-1010
이가	-1011
▁시리즈	-1012
▁몰	-1013
인은	-1014
상의	-1015
▁2005	-1016
▁정보	-1017
▁따르면	-1018
▁지구	-1019
▁능	-1020
▁22	-1021
치는	-1022
▁대신	-1023
▁개최	-1024
▁23	-1025
시의	-1026
▁보고	-1027
▁시스템	-1028
지고	-1029
전에서	-1030
▁활약	-1031
▁자연	-1032
▁진출	-1033
우스	-1034
수는	-1035
위원회	-1036
▁마이	-1037
▁평가	-1038
▁추가	-1039
해야	-1040
선을	-1041
▁J	-1042
▁기능	-1043
▁빌	-1044
▁그가	-1045
▁이야	-1046
있다	-1047
대는	-1048
텔레	-1049
▁2000	-1050
▁생활	-1051
▁있는데	-1052
대표	-1053
▁상황	-1054
수로	-1055
▁않은	-1056
갔다	-1057
▁풍	-1058
▁민주	-1059
▁되는	-1060
명이다	-1061
▁건물	-1062
▁그리스	-1063
▁정도	-1064
▁2004	-1065
▁정의	-1066
위에	-1067
▁O	-1068
인을	-1069
▁말한다	-1070
▁유지	-1071
부를	-1072
▁졸업	-1073
▁비롯	-1074
▁녹	-1075
부는	-1076
▁오스트	-1077
▁역시	-1078
▁항공	-1079
▁인구는	-1080
북도	-1081
▁눈	-1082
▁먹	-1083
대가	-1084
▁후에	-1085
▁서로	-1086
▁크게	-1087
es	-1088
▁보여	-1089
▁인도	-1090
▁그룹	-1091
▁발전	-1092
주는	-1093
▁홈	-1094
대한	-1095
적은	-1096
▁핵	-1097
▁변경	-1098
▁센	-1099
▁중요한	-1100
▁뜻은	-1101
트는	-1102
세의	-1103
▁않았	-1104
지로	-1105
문화	-1106
▁브라	-1107
▁엘	-1108
들에	-1109
원으로	-1110
▁26	-1111
계를	-1112
▁바이	-1113
▁28	-1114
▁제국	-1115
▁그것	-1116
▁건설	-1117
▁거쳐	-1118
▁쇼	-1119
문을	-1120
업을	-1121
▁관한	-1122
▁뿐	-1123
▁대전	-1124
BS	-1125
일까지	-1126
▁철도	-1127
▁퍼	-1128
▁압	-1129
▁결혼	-1130
▁인물	-1131
▁지금	-1132
▁학교	-1133
치를	-1134
▁응	-1135
▁27	-1136
▁190	-1137
군을	-1138
▁t	-1139
▁낮	-1140
식으로	-1141
▁노래	-1142
▁분류	-1143
▁관리	-1144
at	-1145
▁아르	-1146
비전	-1147
▁일으	-1148
al	-1149
▁프리	-1150
킨다	-1151
▁요구	-1152
임을	-1153
성은	-1154
제가	-1155
▁모델	-1156
▁완전	-1157
▁공동	-1158
▁희	-1159
과는	-1160
▁가진	-1161
되면서	-1162
키는	-1163
▁형성	-1164
▁이론	-1165
▁원래	-1166
▁경기도	-1167
▁나라	-1168
▁레이	-1169
▁놓	-1170
▁밴	-1171
니다	-1172
회를	-1173
▁만든	-1174
▁플레이	-1175
▁딸	-1176
제의	-1177
▁태어났다	-1178
장의	-1179
▁시절	-1180
상이	-1181
이드	-1182
▁군사	-1183
▁동시에	-1184
관은	-1185
▁울	-1186
▁반대	-1187
▁기업	-1188
▁연합	-1189
▁이르	-1190
▁시작했다	-1191
▁사이에	-1192
오는	-1193
▁중화	-1194
▁텔레	-1195
트로	-1196
▁부산	-1197
▁2019	-1198
▁실시	-1199
른다	-1200
▁않는	-1201
▁여자	-1202
▁혹	-1203
▁느	-1204
▁겸	-1205
ic	-1206
▁상대	-1207
▁기본	-1208
▁어떤	-1209
▁지역의	-1210
▁비판	-1211
상으로	-1212
▁색	-1213
이었던	-1214
역이다	-1215
▁시대	-1216
▁티	-1217
특별	-1218
▁있다고	-1219
▁노동	-1220
▁승강	-1221
장에	-1222
▁싱글	-1223
▁계약	-1224
▁역할을	-1225
인민공	-1226
명은	-1227
▁2002	-1228
▁지하	-1229
▁배우이다	-1230
하는데	-1231
▁학생	-1232
▁운행	-1233
광역	-1234
▁민족	-1235
정한	-1236
▁판매	-1237
▁아닌	-1238
▁처음으로	-1239
▁FC	-1240
▁소련	-1241
▁지도	-1242
▁긴	-1243
체의	-1244
서를	-1245
이의	-1246
소를	-1247
트의	-1248
▁잉	-1249
▁전통	-1250
▁최초의	-1251
▁싸	-1252
▁영화이다	-1253
드를	-1254
▁자동	-1255
드의	-1256
▁워	-1257
나다	-1258
▁현대	-1259
이기도	-1260
▁50	-1261
▁여기	-1262
▁이때	-1263
▁2003	-1264
호는	-1265
군에	-1266
단의	-1267
되며	-1268
▁보통	-1269
▁수행	-1270
호를	-1271
▁특징	-1272
▁29	-1273
이를	-1274
프리카	-1275
▁명칭	-1276
트를	-1277
호로	-1278
▁전라	-1279
▁넓	-1280
▁휴	-1281
▁도입	-1282
장에서	-1283
▁되고	-1284
▁기준으로	-1285
자와	-1286
▁망	-1287
레스	-1288
▁이동	-1289
있는	-1290
▁기반	-1291
적을	-1292
▁옮	-1293
체를	-1294
▁하며	-1295
▁있을	-1296
린다	-1297
▁위하여	-1298
▁달리	-1299
▁V	-1300
격을	-1301
▁초기	-1302
▁기간	-1303
▁기존	-1304
▁공간	-1305
▁의한	-1306
▁종교	-1307
▁견	-1308
▁인간	-1309
▁야구	-1310
▁전문	-1311
물을	-1312
▁마을	-1313
▁개인	-1314
▁그래	-1315
▁특별	-1316
▁지나	-1317
▁비슷	-1318
▁제외	-1319
▁기원	-1320
▁퇴	-1321
▁「	-1322
▁서비	-1323
▁역임	-1324
▁교황	-1325
회는	-1326
리로	-1327
▁바로	-1328
무를	-1329
드로	-1330
▁출시	-1331
세는	-1332
▁혁	-1333
리와	-1334
▁개의	-1335
도에	-1336
혔다	-1337
중에	-1338
▁탑	-1339
관을	-1340
▁과학	-1341
▁콜	-1342
스탄	-1343
it	-1344
▁궁	-1345
▁훈	-1346
▁이끌	-1347
▁정책	-1348
▁모양	-1349
▁도쿄	-1350
▁31	-1351
▁어머니	-1352
했는데	-1353
▁경기에서	-1354
동안	-1355
▁지배	-1356
▁유일	-1357
▁국내	-1358
is	-1359
▁엄	-1360
독교	-1361
▁빈	-1362
▁일반적으로	-1363
▁경찰	-1364
어가	-1365
▁애니	-1366
의를	-1367
▁아버지	-1368
▁태양	-1369
▁소설	-1370
▁지휘	-1371
리오	-1372
▁될	-1373
어의	-1374
화가	-1375
ou	-1376
▁과거	-1377
구의	-1378
▁컴퓨	-1379
▁주변	-1380
상은	-1381
▁푸	-1382
▁텔레비전	-1383
▁다이	-1384
▁~	-1385
▁사업	-1386
▁혹은	-1387
▁월드컵	-1388
▁슬	-1389
▁가수	-1390
▁이적	-1391
▁웨	-1392
▁기타	-1393
▁중심으로	-1394
쪽에	-1395
하지만	-1396
시켰다	-1397
▁이것은	-1398
▁공연	-1399
▁연방	-1400
▁그를	-1401
제는	-1402
▁벨	-1403
위로	-1404
▁보내	-1405
▁받은	-1406
▁있다는	-1407
시간	-1408
▁부르	-1409
정에	-1410
▁곧	-1411
당의	-1412
▁전국	-1413
▁비교	-1414
▁동일	-1415
동에	-1416
▁적용	-1417
▁받았	-1418
가와	-1419
마다	-1420
.5	-1421
▁속하는	-1422
▁지정되었다	-1423
▁맥	-1424
년의	-1425
▁흔	-1426
▁먼	-1427
스에	-1428
학과	-1429
사와	-1430
단을	-1431
쳤다	-1432
▁밖	-1433
▁받고	-1434
▁되었고	-1435
▁탐	-1436
류의	-1437
체가	-1438
▁확인	-1439
▁풀	-1440
카이	-1441
▁사랑	-1442
▁가까	-1443
▁떨어	-1444
▁방영	-1445
인으로	-1446
연구	-1447
종의	-1448
▁건축	-1449
▁[	-1450
선은	-1451
▁기관	-1452
광역시	-1453
부가	-1454
▁없이	-1455
▁피해	-1456
시마	-1457
▁규모	-1458
▁담당	-1459
르트	-1460
▁착	-1461
▁1990	-1462
▁찾아	-1463
.1	-1464
▁작곡	-1465
▁뮤	-1466
▁추정	-1467
BC	-1468
▁분야	-1469
단은	-1470
▁뉴욕	-1471
▁클럽	-1472
▁때문이다	-1473
▁컴퓨터	-1474
▁산업	-1475
▁40	-1476
▁2001	-1477
▁숙	-1478
▁충청	-1479
re	-1480
조의	-1481
▁기독교	-1482
▁선정	-1483
▁캐나다	-1484
▁샤	-1485
▁환경	-1486
▁자기	-1487
피언	-1488
▁획	-1489
선이	-1490
cm	-1491
▁지지	-1492
▁활동을	-1493
원에	-1494
▁통합	-1495
▁189	-1496
메이션	-1497
▁방향	-1498
▁실패	-1499
▁두고	-1500
▁열차	-1501
▁증가	-1502
▁그녀는	-1503
▁어느	-1504
▁FI	-1505
기관	-1506
인이다	-1507
하거나	-1508
▁득	-1509
▁설명	-1510
▁낙	-1511
▁차량	-1512
▁이런	-1513
스코	-1514
▁늘	-1515
▁자신이	-1516
했다고	-1517
▁가족	-1518
식은	-1519
동을	-1520
▁염	-1521
▁대부분의	-1522
▁넣	-1523
▁옥	-1524
▁올라	-1525
▁멤	-1526
▁는	-1527
▁너	-1528
일에는	-1529
▁개념	-1530
▁국가대표	-1531
운드	-1532
계의	-1533
10	-1534
면에	-1535
mm	-1536
▁우주	-1537
기와	-1538
시켜	-1539
▁최대	-1540
▁상당	-1541
▁걸쳐	-1542
방송	-1543
▁이상의	-1544
▁오늘	-1545
▁기념	-1546
글랜드	-1547
이로	-1548
▁보호	-1549
세가	-1550
▁챔	-1551
치가	-1552
▁있지만	-1553
르게	-1554
-2	-1555
▁하나이다	-1556
▁수록	-1557
적이	-1558
식의	-1559
▁갑	-1560
▁어린	-1561
구에	-1562
▁이와	-1563
움을	-1564
성과	-1565
▁대체	-1566
▁수는	-1567
▁없었다	-1568
시는	-1569
▁있어서	-1570
50	-1571
▁등에	-1572
▁이름은	-1573
▁애니메이션	-1574
리지	-1575
성에	-1576
일을	-1577
▁뛰어	-1578
▁최초로	-1579
▁최근	-1580
학적	-1581
렇게	-1582
겼다	-1583
식이	-1584
▁다음을	-1585
심을	-1586
▁대하여	-1587
▁서울특별	-1588
▁예정	-1589
▁등으로	-1590
▁멤버	-1591
▁있었던	-1592
▁데이터	-1593
자들은	-1594
으면	-1595
학을	-1596
▁사고	-1597
크로	-1598
▁더욱	-1599
트남	-1600
세를	-1601
▁하다	-1602
▁윌	-1603
역을	-1604
리에서	-1605
상에	-1606
▁선출	-1607
▁개봉	-1608
▁챔피언	-1609
le	-1610
과에	-1611
▁흐	-1612
▁지역에	-1613
▁TV	-1614
▁것이라고	-1615
▁스페인	-1616
▁내려	-1617
▁FIFA	-1618
당은	-1619
▁땅	-1620
▁자료	-1621
▁잉글랜드	-1622
▁작가	-1623
▁맺	-1624
▁최종	-1625
했을	-1626
▁선택	-1627
▁역은	-1628
소가	-1629
▁불가	-1630
한다는	-1631
▁부족	-1632
메리카	-1633
▁나가	-1634
▁구간	-1635
▁1999	-1636
널리	-1637
회에서	-1638
어서	-1639
▁언어	-1640
구를	-1641
▁보인다	-1642
되었으나	-1643
▁위원	-1644
▁선언	-1645
시키는	-1646
▁획득	-1647
▁흑	-1648
▁명령	-1649
▁어려	-1650
▁물리	-1651
▁조건	-1652
명으로	-1653
주에	-1654
▁잔	-1655
▁평균	-1656
▁1998	-1657
▁공산	-1658
▁시민	-1659
경기	-1660
▁윈	-1661
▁변화	-1662
법을	-1663
▁선수이다	-1664
인민공화국	-1665
▁공화국	-1666
▁점령	-1667
▁가리킨다	-1668
_2	-1669
함으로써	-1670
체는	-1671
▁베이	-1672
▁있게	-1673
렀다	-1674
소는	-1675
▁선발	-1676
난다	-1677
▁조사	-1678
▁불구	-1679
드리	-1680
전은	-1681
만을	-1682
▁이들은	-1683
▁런	-1684
개월	-1685
▁연주	-1686
▁이름으로	-1687
자들이	-1688
▁1980	-1689
비를	-1690
▁관할	-1691
진을	-1692
스에서	-1693
만이	-1694
하도록	-1695
▁칭	-1696
▁동물	-1697
년간	-1698
▁에너	-1699
야마	-1700
▁연속	-1701
▁예를	-1702
▁흥	-1703
▁솔	-1704
▁좋은	-1705
정이	-1706
▁도로	-1707
▁이유로	-1708
▁옛	-1709
▁잃	-1710
▁반응	-1711
▁북한	-1712
▁거주	-1713
관이	-1714
나무	-1715
▁결승	-1716
선에	-1717
▁움	-1718
교육	-1719
▁후반	-1720
내는	-1721
신을	-1722
▁언급	-1723
스카	-1724
쪽으로는	-1725
▁현재는	-1726
구는	-1727
▁조지	-1728
▁왜	-1729
학의	-1730
▁그들의	-1731
.2	-1732
덜란드	-1733
▁전기	-1734
▁이해	-1735
이란	-1736
▁서울특별시	-1737
▁인천	-1738
시대	-1739
▁표준	-1740
었으며	-1741
▁전에	-1742
▁고대	-1743
이에	-1744
웠다	-1745
▁유사	-1746
▁팬	-1747
▁목표	-1748
▁기원전	-1749
▁예술	-1750
▁징	-1751
라의	-1752
라도	-1753
▁교통	-1754
▁출판	-1755
원에서	-1756
인데	-1757
▁소유	-1758
이지만	-1759
정은	-1760
▁몽	-1761
▁지속	-1762
▁면적은	-1763
▁정규	-1764
회가	-1765
▁공립	-1766
▁스포	-1767
▁입단	-1768
▁네덜란드	-1769
st	-1770
▁겨	-1771
▁사상	-1772
▁정당	-1773
월에는	-1774
▁밝혔다	-1775
▁베트남	-1776
▁이곳	-1777
▁아시아	-1778
▁맡았다	-1779
▁주민	-1780
▁주의	-1781
▁컨	-1782
우는	-1783
▁액	-1784
▁사무	-1785
▁하나의	-1786
회에	-1787
▁효과	-1788
부로	-1789
▁덴	-1790
▁영국의	-1791
단에	-1792
랐다	-1793
▁모습을	-1794
▁이듬	-1795
▁앤	-1796
소의	-1797
▁폴란드	-1798
▁명의	-1799
단이	-1800
▁전자	-1801
▁1997	-1802
▁시설	-1803
▁하나로	-1804
계에	-1805
으므로	-1806
트리	-1807
▁깊	-1808
▁대중	-1809
▁휘	-1810
▁드러	-1811
▁세포	-1812
지와	-1813
▁말했다	-1814
▁불구하고	-1815
직을	-1816
금을	-1817
▁구분	-1818
▁을	-1819
▁조약	-1820
30	-1821
▁우리	-1822
▁그런	-1823
▁끌	-1824
▁아직	-1825
▁하지	-1826
▁익	-1827
▁돈	-1828
되기	-1829
▁정확	-1830
하였는데	-1831
스턴	-1832
정부	-1833
▁실제	-1834
▁거두	-1835
▁대구	-1836
▁지상	-1837
가의	-1838
▁승리	-1839
형을	-1840
장과	-1841
▁실험	-1842
▁c	-1843
▁이듬해	-1844
▁세워	-1845
▁사용하는	-1846
▁덕	-1847
▁강화	-1848
▁쓴	-1849
▁메이	-1850
▁오늘날	-1851
▁국가대표팀	-1852
▁소비	-1853
레일	-1854
▁분리	-1855
▁언론	-1856
▁믿	-1857
▁국립	-1858
지지	-1859
▁제한	-1860
▁목록	-1861
▁사이의	-1862
전의	-1863
민주주의	-1864
▁은퇴	-1865
치고	-1866
▁유래	-1867
골을	-1868
▁1995	-1869
메달	-1870
월부터	-1871
▁씨	-1872
지역	-1873
▁그들은	-1874
드가	-1875
▁마르	-1876
들로	-1877
▁널리	-1878
일랜드	-1879
▁알려진	-1880
▁1996	-1881
정의	-1882
▁불리	-1883
▁분석	-1884
▁비해	-1885
▁쌍	-1886
관으로	-1887
▁통과	-1888
▁위에	-1889
로의	-1890
▁그림	-1891
et	-1892
▁밤	-1893
▁소프트	-1894
▁현재의	-1895
▁국회의	-1896
산을	-1897
문에	-1898
주를	-1899
▁등과	-1900
▁육군	-1901
▁발달	-1902
ing	-1903
▁포함한	-1904
▁찬	-1905
▁의미한다	-1906
▁고등학교	-1907
전이	-1908
▁km	-1909
▁펼	-1910
▁X	-1911
▁포르	-1912
▁중에	-1913
▁제품	-1914
▁경험	-1915
▁완전히	-1916
▁핀	-1917
경을	-1918
▁방문	-1919
▁더불	-1920
el	-1921
▁제조	-1922
▁헌법	-1923
▁나온	-1924
▁작업	-1925
프로	-1926
트가	-1927
▁차례	-1928
▁움직	-1929
▁단체	-1930
▁웹	-1931
▁m	-1932
로를	-1933
하의	-1934
▁것에	-1935
▁물질	-1936
▁못했다	-1937
배우	-1938
안을	-1939
▁바탕	-1940
▁전해	-1941
▁사람이	-1942
▁요청	-1943
▁설계	-1944
▁더불어	-1945
국은	-1946
조는	-1947
위는	-1948
▁비행	-1949
▁페르	-1950
▁여겨	-1951
아의	-1952
▁갖고	-1953
위가	-1954
▁결합	-1955
문의	-1956
▁188	-1957
지에서	-1958
들도	-1959
▁멸	-1960
점이	-1961
인과	-1962
사에서	-1963
▁배치	-1964
가를	-1965
▁프랑스의	-1966
▁정도로	-1967
▁때까지	-1968
▁자주	-1969
시코	-1970
▁연기	-1971
▁비롯한	-1972
▁독일의	-1973
구가	-1974
▁주연	-1975
▁통일	-1976
▁감독의	-1977
르고	-1978
▁수준	-1979
부르크	-1980
베이	-1981
om	-1982
▁꽃	-1983
르의	-1984
▁중요	-1985
▁프로젝	-1986
▁나머	-1987
▁부여	-1988
ion	-1989
▁소재	-1990
지방	-1991
▁이사	-1992
도와	-1993
▁헬	-1994
▁오른	-1995
▁스웨	-1996
▁영토	-1997
▁크로	-1998
▁스스로	-1999
▁목적으로	-2000
▁오래	-2001
▁이로	-2002
▁쉽	-2003
▁런던	-2004
모토	-2005
▁파괴	-2006
▁초등학교	-2007
19	-2008
▁깨	-2009
▁마찬	-2010
▁1970	-2011
▁칸	-2012
▁1994	-2013
위의	-2014
톨릭	-2015
▁바뀌	-2016
▁있도록	-2017
▁크리스	-2018
감을	-2019
▁그대로	-2020
▁빛	-2021
▁마찬가지	-2022
▁지난	-2023
▁괴	-2024
▁브라질	-2025
▁자리	-2026
▁자치	-2027
▁만나	-2028
▁않아	-2029
▁의하여	-2030
▁유명한	-2031
▁홀	-2032
스테	-2033
▁성장	-2034
▁멀	-2035
▁이들	-2036
시를	-2037
▁외국	-2038
▁패배	-2039
▁인터넷	-2040
▁추진	-2041
▁우승을	-2042
사카	-2043
▁마음	-2044
▁아프리카	-2045
었던	-2046
▁500	-2047
나이	-2048
▁치료	-2049
▁주인	-2050
▁맨	-2051
▁식민	-2052
▁확장	-2053
▁밝혀	-2054
▁사람들이	-2055
받았다	-2056
▁기여	-2057
▁많다	-2058
▁60	-2059
군과	-2060
한다고	-2061
ol	-2062
▁복귀	-2063
▁정신	-2064
초등학교	-2065
종이다	-2066
베르	-2067
력은	-2068
60	-2069
▁오스트리아	-2070
릭터	-2071
지게	-2072
되기도	-2073
▁스웨덴	-2074
▁과정에서	-2075
.0	-2076
▁유전	-2077
물의	-2078
▁사라	-2079
▁경우가	-2080
부에서	-2081
아가	-2082
▁나오	-2083
▁강력	-2084
▁선수로	-2085
▁경쟁	-2086
니는	-2087
▁일어나	-2088
일의	-2089
▁먼저	-2090
▁되었	-2091
▁것이었다	-2092
▁o	-2093
크는	-2094
없이	-2095
▁습	-2096
▁알렉	-2097
▁불교	-2098
▁짧	-2099
▁1992	-2100
▁가르	-2101
국이	-2102
행을	-2103
자이다	-2104
프는	-2105
스티	-2106
▁있으나	-2107
주로	-2108
형의	-2109
▁이외	-2110
규모	-2111
▁근처	-2112
▁제작된	-2113
▁수용	-2114
▁서식	-2115
▁들어가	-2116
▁혈	-2117
▁해석	-2118
▁회사	-2119
▁접근	-2120
▁폐지	-2121
▁법률	-2122
주시	-2123
▁일제	-2124
-0	-2125
▁초대	-2126
▁캐릭터	-2127
많은	-2128
▁그녀의	-2129
▁개혁	-2130
▁단순	-2131
고등학교	-2132
▁불리는	-2133
▁아마	-2134
▁품	-2135
스토	-2136
▁스포츠	-2137
바이	-2138
▁인민	-2139
량이	-2140
▁가능하다	-2141
▁특정	-2142
▁1960	-2143
고를	-2144
▁구성되어	-2145
부와	-2146
▁촉	-2147
하다가	-2148
▁가져	-2149
▁제국의	-2150
라스	-2151
▁밴드	-2152
졌고	-2153
▁작용	-2154
▁도착	-2155
▁남자	-2156
▁UE	-2157
▁기초	-2158
▁요시	-2159
▁잇	-2160
▁달러	-2161
▁칠	-2162
▁여기서	-2163
철도	-2164
▁결성	-2165
▁주도	-2166
이어	-2167
멕시코	-2168
▁존재한다	-2169
▁때는	-2170
크의	-2171
▁Y	-2172
▁집합	-2173
▁하이	-2174
▁알고	-2175
성으로	-2176
▁수많은	-2177
했다는	-2178
▁70	-2179
▁UEFA	-2180
왕의	-2181
웨어	-2182
▁가톨릭	-2183
▁떨어진	-2184
▁해결	-2185
이기	-2186
▁1991	-2187
▁비슷한	-2188
▁조각	-2189
▁조선민주주의	-2190
▁친구	-2191
수이다	-2192
▁여객	-2193
▁경영	-2194
▁않다	-2195
▁필리	-2196
▁공항	-2197
▁상대로	-2198
간다	-2199
수한	-2200
자리	-2201
화국의	-2202
▁거부	-2203
▁지냈다	-2204
레일리아	-2205
▁파견	-2206
▁1993	-2207
▁성립	-2208
▁근거	-2209
▁자동차	-2210
▁미국에서	-2211
▁보다	-2212
▁아무	-2213
▁『	-2214
▁기록했다	-2215
▁반란	-2216
▁몬	-2217
▁스위	-2218
▁관측	-2219
관의	-2220
▁술	-2221
TV	-2222
량을	-2223
▁노르	-2224
스키	-2225
▁겪	-2226
▁외교	-2227
▁바꾸	-2228
어나	-2229
자에	-2230
▁행동	-2231
▁궤	-2232
선거	-2233
▁의하면	-2234
함을	-2235
▁십	-2236
▁지역에서	-2237
▁사용한다	-2238
am	-2239
12	-2240
40	-2241
▁다만	-2242
하기로	-2243
▁대표적인	-2244
년을	-2245
▁록	-2246
▁상호	-2247
▁영어	-2248
기술	-2249
▁만에	-2250
▁2020	-2251
▁이루어진	-2252
▁북쪽	-2253
▁발행	-2254
▁디자인	-2255
▁강원	-2256
▁연극	-2257
▁동맹	-2258
▁KBS	-2259
▁주는	-2260
▁살아	-2261
▁the	-2262
▁노선	-2263
조를	-2264
역은	-2265
버스	-2266
▁훈련	-2267
▁놀	-2268
▁당선	-2269
▁대해서	-2270
▁생성	-2271
▁것과	-2272
▁여름	-2273
▁논란	-2274
▁타이틀	-2275
대와	-2276
▁남쪽	-2277
▁부정	-2278
▁마찬가지로	-2279
▁이렇게	-2280
▁형태로	-2281
▁제시	-2282
▁임시	-2283
▁투표	-2284
_3	-2285
촬영	-2286
▁분포	-2287
▁시행	-2288
▁중간	-2289
▁시작하였다	-2290
화의	-2291
▁나무	-2292
▁다르	-2293
▁제안	-2294
면을	-2295
▁위해서	-2296
▁광주	-2297
▁상징	-2298
▁승강장	-2299
▁중에서	-2300
라인	-2301
만의	-2302
▁방어	-2303
▁의원	-2304
▁일을	-2305
가이다	-2306
속도로	-2307
.3	-2308
▁끝에	-2309
거리	-2310
았고	-2311
로가	-2312
시가	-2313
지션	-2314
▁이야기	-2315
▁흡	-2316
▁오스트레일리아	-2317
▁이주	-2318
▁황제	-2319
였고	-2320
▁앙	-2321
루스	-2322
낸다	-2323
▁엔진	-2324
점으로	-2325
▁체포	-2326
▁스테	-2327
▁대응	-2328
량은	-2329
▁재판	-2330
▁시도	-2331
▁있었고	-2332
il	-2333
▁개통	-2334
▁그린	-2335
으면서	-2336
▁공작	-2337
일은	-2338
카와	-2339
▁처리	-2340
▁위험	-2341
▁등록	-2342
ac	-2343
▁몇몇	-2344
당이	-2345
러스	-2346
▁꾸	-2347
▁아카	-2348
트에서	-2349
디어	-2350
역으로	-2351
▁준비	-2352
▁곳에	-2353
▁계열	-2354
▁사용된다	-2355
▁멕시코	-2356
▁통치	-2357
화된	-2358
▁부른다	-2359
인들이	-2360
▁적이	-2361
▁있기	-2362
▁벽	-2363
▁삼성	-2364
▁캠	-2365
▁삶	-2366
▁붕	-2367
▁옆	-2368
▁선수권	-2369
▁지하철	-2370
소년	-2371
어졌다	-2372
소에	-2373
▁활용	-2374
선에서	-2375
▁사용할	-2376
▁이름이	-2377
▁해안	-2378
▁보유	-2379
▁프레	-2380
▁쌓	-2381
▁숨	-2382
▁뇌	-2383
▁한국의	-2384
▁규정	-2385
▁제기	-2386
▁그렇	-2387
▁187	-2388
▁시험	-2389
▁교회	-2390
▁보존	-2391
▁본래	-2392
▁중단	-2393
▁1988	-2394
▁체결	-2395
▁80	-2396
▁나타나	-2397
트워	-2398
▁동생	-2399
▁슈퍼	-2400
▁귀족	-2401
나라의	-2402
▁낳	-2403
▁값	-2404
▁직후	-2405
▁다루	-2406
물이	-2407
가로	-2408
▁얼마	-2409
▁안정	-2410
문이	-2411
▁디지	-2412
시즌	-2413
▁라디오	-2414
▁있지	-2415
비는	-2416
▁회의	-2417
▁대해서는	-2418
▁지적	-2419
해졌다	-2420
사업	-2421
▁팀의	-2422
▁보수	-2423
▁빅	-2424
▁캘	-2425
▁나머지	-2426
▁관련된	-2427
하이	-2428
▁촬영	-2429
▁아일랜드	-2430
]]	-2431
▁가정	-2432
와는	-2433
▁스트	-2434
▁좋아	-2435
▁따른	-2436
▁밑	-2437
▁에서	-2438
▁못하고	-2439
▁곤	-2440
▁살해	-2441
과학	-2442
▁하계	-2443
승을	-2444
▁남부	-2445
▁of	-2446
▁떠나	-2447
▁종합	-2448
▁즉위	-2449
▁주인공	-2450
소로	-2451
▁바다	-2452
▁윌리	-2453
평양	-2454
치의	-2455
▁32	-2456
였으며	-2457
당을	-2458
조가	-2459
력의	-2460
od	-2461
국을	-2462
하에	-2463
▁옮겨	-2464
▁것도	-2465
▁유니	-2466
▁조성	-2467
▁히로	-2468
▁p	-2469
▁미사	-2470
▁못한	-2471
▁완성	-2472
▁종류	-2473
권의	-2474
서로	-2475
▁혐	-2476
as	-2477
아시아	-2478
체로	-2479
되자	-2480
▁문학	-2481
계가	-2482
▁1989	-2483
▁1945	-2484
나의	-2485
하라	-2486
미터	-2487
▁교수	-2488
▁정부는	-2489
▁번역	-2490
▁동쪽	-2491
▁를	-2492
▁표시	-2493
시키고	-2494
▁:	-2495
▁강한	-2496
습니다	-2497
▁경상북도	-2498
웨이	-2499
▁이루어져	-2500
▁위치하고	-2501
▁제주	-2502
자들의	-2503
관에	-2504
▁경상남도	-2505
내고	-2506
▁출생	-2507
력으로	-2508
롭게	-2509
▁수비	-2510
▁둔	-2511
ed	-2512
▁시기	-2513
시킨	-2514
▁유일한	-2515
세에	-2516
려고	-2517
크라	-2518
▁묘사	-2519
▁대륙	-2520
▁윈도	-2521
▁벤	-2522
▁가능한	-2523
▁야마	-2524
▁젊	-2525
▁물론	-2526
▁대사	-2527
산으로	-2528
계는	-2529
▁지역을	-2530
▁각종	-2531
▁유대	-2532
▁해외	-2533
15	-2534
▁로스	-2535
▁s	-2536
▁의견	-2537
NA	-2538
▁년	-2539
▁엘리	-2540
▁일어난	-2541
단으로	-2542
▁안에	-2543
▁1950	-2544
▁취임	-2545
▁이용하여	-2546
▁계승	-2547
나가	-2548
로로	-2549
산의	-2550
인트	-2551
▁금지	-2552
학생	-2553
러운	-2554
▁오후	-2555
▁홍콩	-2556
▁아시	-2557
▁인근	-2558
▁벗	-2559
▁근무	-2560
▁달성	-2561
▁내각	-2562
▁중의	-2563
▁왼	-2564
▁소개	-2565
▁[[	-2566
▁d	-2567
▁문제가	-2568
▁친일	-2569
▁싶	-2570
센터	-2571
론을	-2572
▁충돌	-2573
▁혁명	-2574
▁하루	-2575
▁주목	-2576
▁종료	-2577
▁카를	-2578
▁경기를	-2579
종이	-2580
▁표기	-2581
▁186	-2582
▁참여하였다	-2583
▁발사	-2584
▁전달	-2585
회사	-2586
▁위치해	-2587
▁사이에서	-2588
▁도시로	-2589
분을	-2590
량의	-2591
족의	-2592
석을	-2593
▁간의	-2594
분에	-2595
전히	-2596
▁승격	-2597
▁관계를	-2598
ow	-2599
교의	-2600
▁필요한	-2601
▁억	-2602
▁이스	-2603
▁경우에는	-2604
▁말을	-2605
▁사망하였다	-2606
월까지	-2607
.4	-2608
▁관광	-2609
▁중국의	-2610
▁가까운	-2611
▁낮은	-2612
▁문제를	-2613
▁스코	-2614
인지	-2615
▁만들었다	-2616
▁포르투	-2617
▁서비스	-2618
▁썼	-2619
리포	-2620
▁나누	-2621
▁디지털	-2622
▁아내	-2623
▁이집	-2624
▁듣	-2625
▁남북	-2626
▁합류	-2627
▁비디오	-2628
연합	-2629
11	-2630
정보	-2631
▁죄	-2632
비가	-2633
▁전환	-2634
▁제거	-2635
문은	-2636
화는	-2637
▁천황	-2638
▁만들어진	-2639
▁되었으며	-2640
▁위의	-2641
▁이래	-2642
▁센터	-2643
▁둘러	-2644
▁사진	-2645
80	-2646
▁가입	-2647
▁읽	-2648
문화재	-2649
디아	-2650
치로	-2651
▁바르	-2652
▁스튜	-2653
▁뒤에	-2654
▁최고의	-2655
▁정치적	-2656
▁만약	-2657
▁빨	-2658
▁구조를	-2659
▁지명	-2660
적으로는	-2661
▁빼	-2662
▁이슬	-2663
▁유로	-2664
▁출신의	-2665
▁수가	-2666
신의	-2667
▁르	-2668
▁베네	-2669
▁안전	-2670
▁서쪽	-2671
▁건너	-2672
준다	-2673
권이	-2674
▁갖추	-2675
▁바탕으로	-2676
▁다카	-2677
티아	-2678
▁명예	-2679
원과	-2680
▁윌리엄	-2681
▁오사카	-2682
▁반면	-2683
만에	-2684
인들은	-2685
▁35	-2686
교회	-2687
▁실제로	-2688
▁b	-2689
▁굴	-2690
헝가	-2691
▁기존의	-2692
▁기록을	-2693
시로	-2694
▁오브	-2695
되었던	-2696
파의	-2697
▁마련	-2698
상과	-2699
▁주었다	-2700
▁너무	-2701
▁그려	-2702
▁그해	-2703
▁통하여	-2704
▁해군	-2705
전으로	-2706
▁베르	-2707
▁전략	-2708
▁정식	-2709
▁사실을	-2710
▁즐	-2711
..	-2712
주가	-2713
▁재직	-2714
▁종목	-2715
즈의	-2716
작용	-2717
산은	-2718
상에서	-2719
▁꼬	-2720
▁전반	-2721
고로	-2722
▁미래	-2723
▁납	-2724
▁불린다	-2725
메달을	-2726
▁아니다	-2727
▁전투에서	-2728
▁신라	-2729
▁실행	-2730
▁강조	-2731
차를	-2732
13	-2733
장이다	-2734
▁집중	-2735
▁부모	-2736
▁평화	-2737
▁사람은	-2738
이던	-2739
▁저항	-2740
▁이번	-2741
오카	-2742
질을	-2743
▁상업	-2744
▁미술	-2745
▁넘어	-2746
▁전시	-2747
ve	-2748
▁제목	-2749
트에	-2750
점에서	-2751
▁가는	-2752
18	-2753
호가	-2754
▁정착	-2755
▁대회에서	-2756
ig	-2757
년대에	-2758
피아	-2759
해를	-2760
▁북부	-2761
.6	-2762
▁생물	-2763
▁뮤직	-2764
▁적극	-2765
슨은	-2766
▁보여주	-2767
▁성격	-2768
▁기능을	-2769
▁공급	-2770
▁배경	-2771
▁불러	-2772
드와	-2773
졌으며	-2774
▁전라남도	-2775
▁연장	-2776
▁작성	-2777
했기	-2778
프가	-2779
군으로	-2780
▁사령	-2781
▁알렉산	-2782
▁인식	-2783
▁만화	-2784
▁네트워	-2785
▁오르	-2786
과를	-2787
두고	-2788
▁기후	-2789
▁파이	-2790
시대의	-2791
▁올랐다	-2792
▁에이	-2793
▁무렵	-2794
▁허용	-2795
가가	-2796
▁천문	-2797
.7	-2798
▁뿐만	-2799
▁끼	-2800
▁후쿠	-2801
▁맹	-2802
▁인한	-2803
▁포지션	-2804
보다는	-2805
▁멜	-2806
▁비밀	-2807
▁하기	-2808
물로	-2809
▁생활을	-2810
요일	-2811
▁영화배우	-2812
▁사람을	-2813
▁확대	-2814
초등학교는	-2815
라우	-2816
그룹	-2817
라고도	-2818
▁정부의	-2819
지도	-2820
▁왔다	-2821
▁일이	-2822
▁이후에	-2823
▁입학	-2824
▁객	-2825
▁던	-2826
▁내부	-2827
▁받아들	-2828
▁제외한	-2829
▁일반적인	-2830
▁MBC	-2831
에게는	-2832
적이고	-2833
▁뒷	-2834
▁항상	-2835
밖에	-2836
▁펜	-2837
의로	-2838
▁최소	-2839
년과	-2840
▁시대의	-2841
체에	-2842
▁류	-2843
▁사용하여	-2844
역에	-2845
▁그래서	-2846
▁나중에	-2847
주교	-2848
되었는데	-2849
▁사회주의	-2850
생활	-2851
▁여전히	-2852
계에서	-2853
▁계산	-2854
▁1987	-2855
us	-2856
-3	-2857
▁만드는	-2858
▁마이크로	-2859
▁스토	-2860
and	-2861
▁관찰	-2862
▁이슬람	-2863
▁혜	-2864
이라고도	-2865
드에서	-2866
당에	-2867
▁보면	-2868
화에	-2869
▁의사	-2870
▁300	-2871
▁위협	-2872
▁동료	-2873
면의	-2874
실을	-2875
▁성우	-2876
▁확보	-2877
▁판단	-2878
▁출발	-2879
▁시기에	-2880
티는	-2881
종은	-2882
▁선의	-2883
임스	-2884
세포	-2885
▁국방	-2886
▁매년	-2887
서에	-2888
력에	-2889
.8	-2890
▁인디	-2891
▁제정	-2892
았으며	-2893
▁1986	-2894
트와	-2895
▁폰	-2896
▁있었지만	-2897
▁편집	-2898
▁뒤를	-2899
끄는	-2900
▁프로듀	-2901
▁등은	-2902
기고	-2903
▁쉽게	-2904
기업	-2905
▁젊은	-2906
▁한다고	-2907
▁보이	-2908
▁오스	-2909
▁채택	-2910
▁부근	-2911
ro	-2912
▁사용되는	-2913
ad	-2914
▁국왕	-2915
사회	-2916
▁충분	-2917
▁시작되었다	-2918
세기에	-2919
ch	-2920
▁전개	-2921
▁붕괴	-2922
▁시의	-2923
17	-2924
정으로	-2925
▁외에도	-2926
▁유형	-2927
▁아우	-2928
즈는	-2929
▁90	-2930
▁셀	-2931
하다고	-2932
▁보도	-2933
▁점차	-2934
▁공격을	-2935
▁승리를	-2936
▁일종이다	-2937
계로	-2938
▁제도	-2939
력과	-2940
설을	-2941
대에서	-2942
▁계약을	-2943
▁터키	-2944
났으며	-2945
▁남편	-2946
▁범죄	-2947
16	-2948
▁끊	-2949
선과	-2950
▁본관은	-2951
국에	-2952
▁지진	-2953
▁덴마	-2954
▁가리키는	-2955
▁핀란드	-2956
▁자리를	-2957
▁경우도	-2958
▁세운	-2959
전쟁	-2960
신이	-2961
▁강력한	-2962
▁1984	-2963
메이	-2964
▁원자	-2965
▁헨	-2966
14	-2967
▁사람들은	-2968
▁합병	-2969
리포니아	-2970
로운	-2971
까지의	-2972
▁탑재	-2973
▁남동	-2974
▁높이	-2975
▁다섯	-2976
▁감소	-2977
미널	-2978
역에서	-2979
▁떨어져	-2980
▁포르투갈	-2981
▁아키	-2982
▁밖에	-2983
▁바람	-2984
▁그곳	-2985
리기	-2986
▁겨울	-2987
▁관심을	-2988
▁등에서	-2989
▁교체	-2990
▁민간	-2991
▁흰	-2992
▁하자	-2993
▁말이다	-2994
▁동부	-2995
르타	-2996
▁잠시	-2997
▁채널	-2998
▁옹	-2999
▁하게	-3000
▁수학	-3001
라노	-3002
하려는	-3003
▁케이	-3004
종으로	-3005
▁장기	-3006
▁하면서	-3007
로서의	-3008
▁중학교	-3009
래프트	-3010
▁수립	-3011
씨는	-3012
▁없어	-3013
▁의해서	-3014
▁이승	-3015
▁주장했다	-3016
점에	-3017
▁모스크	-3018
▁정보를	-3019
▁고구	-3020
▁사용한	-3021
▁설립된	-3022
▁척	-3023
▁녹음	-3024
▁냉	-3025
▁당시의	-3026
버트	-3027
▁구축	-3028
▁/	-3029
구로	-3030
▁갖춘	-3031
공항	-3032
▁전사	-3033
▁샌	-3034
▁책임	-3035
니스	-3036
▁측정	-3037
약을	-3038
까지는	-3039
▁얼굴	-3040
중학교	-3041
당한	-3042
▁The	-3043
리어	-3044
▁변호	-3045
▁캘리포니아	-3046
▁주연으로	-3047
개를	-3048
id	-3049
▁한다는	-3050
면에서	-3051
▁1985	-3052
류를	-3053
법은	-3054
▁침공	-3055
은행	-3056
▁증거	-3057
▁흘	-3058
▁유리	-3059
▁발표했다	-3060
▁불과	-3061
소에서	-3062
사령	-3063
▁왔	-3064
▁해방	-3065
받아	-3066
▁잎	-3067
▁뛰어난	-3068
▁세르	-3069
▁헝가	-3070
▁강원도	-3071
▁인수	-3072
▁평양	-3073
면은	-3074
민족	-3075
산업	-3076
되었지만	-3077
▁나뉘	-3078
려는	-3079
▁해체	-3080
개발	-3081
조선	-3082
시와	-3083
▁시청	-3084
법원	-3085
단체	-3086
▁방식	-3087
▁이끄는	-3088
▁건강	-3089
▁이란	-3090
▁화학	-3091
▁신경	-3092
자에게	-3093
용으로	-3094
해의	-3095
▁임명되었다	-3096
▁만족	-3097
▁필리핀	-3098
관리	-3099
형은	-3100
제에	-3101
▁마리아	-3102
▁사후	-3103
겠다고	-3104
▁개봉한	-3105
▁인간의	-3106
▁태평양	-3107
▁알아	-3108
었는데	-3109
▁종종	-3110
▁힘을	-3111
▁경향	-3112
▁아나	-3113
▁방식으로	-3114
▁45	-3115
▁귀국	-3116
자들을	-3117
▁집단	-3118
권은	-3119
▁균	-3120
▁충청남도	-3121
▁대립	-3122
서가	-3123
▁간주	-3124
▁쓰인다	-3125
▁수입	-3126
▁자신을	-3127
▁루이	-3128
▁때에는	-3129
▁구단	-3130
48	-3131
신은	-3132
리스트	-3133
수와	-3134
▁죽은	-3135
료로	-3136
▁태어난	-3137
원이다	-3138
▁인기를	-3139
▁편입	-3140
형이	-3141
▁나폴	-3142
▁짓	-3143
▁비교적	-3144
▁서부	-3145
▁받는	-3146
었으나	-3147
▁쇠	-3148
▁시내	-3149
하고자	-3150
▁득점	-3151
▁설치되어	-3152
▁회복	-3153
역의	-3154
▁개편	-3155
▁좀	-3156
적이다	-3157
▁어떻	-3158
라엘	-3159
▁사례	-3160
일본	-3161
인에	-3162
▁정상	-3163
▁에드	-3164
후의	-3165
▁쪽	-3166
▁블랙	-3167
▁자본	-3168
동의	-3169
사이	-3170
어와	-3171
.9	-3172
서의	-3173
▁폭발	-3174
▁시대에	-3175
▁대형	-3176
▁길이	-3177
▁속에	-3178
▁조선민주주의인민공화국	-3179
▁대규모	-3180
명한	-3181
▁이것이	-3182
▁신설	-3183
▁노력	-3184
▁중화민	-3185
▁부터	-3186
▁공공	-3187
▁위치한다	-3188
▁텍	-3189
▁기계	-3190
▁여행	-3191
라가	-3192
ent	-3193
▁했지만	-3194
▁사회적	-3195
동차	-3196
▁발견된다	-3197
년이	-3198
▁사실상	-3199
▁게이	-3200
▁보이는	-3201
데미	-3202
▁나오는	-3203
▁초등학교이다	-3204
▁족	-3205
▁본격	-3206
▁농업	-3207
▁내에서	-3208
▁1982	-3209
법에	-3210
▁레코	-3211
▁후손	-3212
▁사람의	-3213
▁춘	-3214
▁장애	-3215
틀랜드	-3216
법의	-3217
▁라이브	-3218
▁복잡	-3219
▁아름	-3220
료를	-3221
동은	-3222
▁특수	-3223
룬다	-3224
어져	-3225
▁울산	-3226
▁지역은	-3227
도시	-3228
▁수정	-3229
로도	-3230
▁내용을	-3231
▁있었으며	-3232
▁초반	-3233
품을	-3234
▁봄	-3235
자치	-3236
▁회원	-3237
시오	-3238
▁에스	-3239
▁기획	-3240
▁조정	-3241
▁과정을	-3242
▁털	-3243
▁남성	-3244
▁고전	-3245
▁신문	-3246
네시아	-3247
▁인하여	-3248
▁발매되었다	-3249
▁찰	-3250
▁흔히	-3251
▁팀은	-3252
▁감염	-3253
▁식물	-3254
▁외에	-3255
▁몽골	-3256
▁파일	-3257
▁이스라엘	-3258
▁저장	-3259
이었고	-3260
▁통신	-3261
▁않을	-3262
▁소프트웨어	-3263
▁우선	-3264
▁어떻게	-3265
테인	-3266
다운	-3267
차례	-3268
▁둥	-3269
▁메이저	-3270
일보	-3271
프의	-3272
대전	-3273
티브	-3274
▁불가능	-3275
▁전차	-3276
▁도움을	-3277
▁대상으로	-3278
점은	-3279
▁정리	-3280
붉은	-3281
같은	-3282
레이션	-3283
▁라틴	-3284
▁전혀	-3285
▁카메	-3286
21	-3287
▁구성된	-3288
▁컬	-3289
▁요리	-3290
▁33	-3291
▁연맹	-3292
▁근대	-3293
▁자는	-3294
▁아랍	-3295
▁있었으나	-3296
▁400	-3297
▁참석	-3298
▁유명하다	-3299
라비아	-3300
▁숲	-3301
▁속에서	-3302
▁인사	-3303
러는	-3304
▁a	-3305
▁조금	-3306
▁홈런	-3307
▁이전에	-3308
▁물러	-3309
▁원칙	-3310
워드	-3311
▁나서	-3312
도에서	-3313
▁원작	-3314
▁아주	-3315
▁델	-3316
▁마사	-3317
수에	-3318
▁구체	-3319
지면서	-3320
▁때에	-3321
▁북서	-3322
▁문화재	-3323
▁1983	-3324
▁형태의	-3325
_4	-3326
인들의	-3327
세이	-3328
▁사는	-3329
▁블루	-3330
경에	-3331
▁형식	-3332
▁사용되었다	-3333
나와	-3334
크를	-3335
▁부문	-3336
▁열대	-3337
▁했고	-3338
헨티	-3339
▁보급	-3340
미디	-3341
었지만	-3342
▁하는데	-3343
권에	-3344
▁파리	-3345
▁비난	-3346
▁엑	-3347
모리	-3348
▁통한	-3349
분의	-3350
▁창설	-3351
▁철도역이다	-3352
ot	-3353
▁기억	-3354
▁하였고	-3355
▁공부	-3356
▁n	-3357
▁확정	-3358
▁행사	-3359
▁암살	-3360
▁증명	-3361
▁한때	-3362
▁잘못	-3363
▁되면서	-3364
▁아르헨티	-3365
싱턴	-3366
▁36	-3367
70	-3368
▁편성	-3369
▁정도의	-3370
▁중화인민공화국	-3371
▁섭	-3372
▁현실	-3373
▁콩	-3374
유의	-3375
▁대상	-3376
▁모스크바	-3377
▁토론	-3378
▁스튜디오	-3379
▁고양	-3380
▁고구려	-3381
하였지만	-3382
▁항복	-3383
▁등장하는	-3384
▁피아	-3385
선으로	-3386
로스	-3387
하나	-3388
▁뜻이	-3389
▁쉬	-3390
정책	-3391
리학	-3392
▁태어나	-3393
경의	-3394
학년	-3395
un	-3396
▁짧은	-3397
▁꿈	-3398
▁수여	-3399
받은	-3400
▁재정	-3401
▁1920	-3402
키아	-3403
▁설정	-3404
▁묻	-3405
▁그에	-3406
하려고	-3407
▁제임스	-3408
▁했으나	-3409
▁중반	-3410
▁오히	-3411
▁탄생	-3412
시킬	-3413
▁옷	-3414
▁선고	-3415
▁트리	-3416
▁핵심	-3417
▁도서	-3418
미는	-3419
▁카운	-3420
씨의	-3421
▁시장	-3422
어도	-3423
▁비용	-3424
지기	-3425
라운드	-3426
주에서	-3427
▁장착	-3428
▁가격	-3429
▁되지	-3430
▁내에	-3431
았던	-3432
▁포지션은	-3433
▁뿌	-3434
이었으나	-3435
▁박사	-3436
▁윈도우	-3437
▁자체	-3438
▁출마	-3439
해진	-3440
▁1972	-3441
▁추정된다	-3442
▁부인	-3443
▁숫	-3444
트라	-3445
함에	-3446
▁세웠다	-3447
▁죽음	-3448
▁역사상	-3449
▁현재까지	-3450
율을	-3451
▁띠	-3452
▁있었는데	-3453
▁잭	-3454
▁답	-3455
간에	-3456
역이	-3457
ra	-3458
▁적은	-3459
▁브랜드	-3460
▁업무	-3461
테인먼	-3462
▁38	-3463
▁은행	-3464
▁타고	-3465
▁1930	-3466
▁맡고	-3467
▁1979	-3468
안에	-3469
드에	-3470
사키	-3471
▁제작에	-3472
▁뜻을	-3473
▁얻었다	-3474
▁세우	-3475
▁오리	-3476
아버	-3477
▁투입	-3478
▁캄	-3479
▁시각	-3480
kg	-3481
다른	-3482
▁협력	-3483
▁가로	-3484
▁마쓰	-3485
▁북동	-3486
스포	-3487
오프	-3488
▁추측	-3489
의의	-3490
▁일본에서	-3491
▁오랜	-3492
▁링	-3493
▁동일한	-3494
▁이끌고	-3495
▁동계	-3496
어들	-3497
▁개선	-3498
터테인먼	-3499
▁단백	-3500
▁유도	-3501
하다는	-3502
크라이나	-3503
▁플로	-3504
호의	-3505
▁오히려	-3506
▁주교	-3507
▁세이	-3508
▁머리	-3509
일이	-3510
▁보였다	-3511
▁덮	-3512
리우	-3513
케이	-3514
▁넓은	-3515
▁없고	-3516
주와	-3517
▁II	-3518
로나	-3519
▁확실	-3520
▁권한	-3521
▁오전	-3522
▁검은	-3523
▁훨	-3524
만은	-3525
색을	-3526
스럽	-3527
물은	-3528
▁정부가	-3529
셔널	-3530
구와	-3531
▁신앙	-3532
▁세계에서	-3533
▁듯	-3534
다면	-3535
▁했으며	-3536
▁에피	-3537
▁수출	-3538
화로	-3539
▁멸망	-3540
▁활발	-3541
국에서	-3542
▁노예	-3543
당했다	-3544
▁그에게	-3545
등을	-3546
▁경기에	-3547
유럽	-3548
▁고향	-3549
면이	-3550
▁뽑	-3551
▁없다고	-3552
▁대항	-3553
▁유엔	-3554
▁1973	-3555
석은	-3556
▁예상	-3557
▁기반으로	-3558
▁애플	-3559
동이	-3560
▁에너지	-3561
조에	-3562
▁예선	-3563
▁훨씬	-3564
▁구별	-3565
▁아카데미	-3566
▁박물	-3567
▁1981	-3568
번의	-3569
▁지닌	-3570
▁만큼	-3571
경기에	-3572
▁1940	-3573
ec	-3574
▁관심	-3575
▁공포	-3576
▁단일	-3577
언을	-3578
▁교토	-3579
판을	-3580
.”	-3581
생의	-3582
▁지낸	-3583
▁형제	-3584
▁개정	-3585
▁마침	-3586
보는	-3587
▁이후에는	-3588
▁공유	-3589
리게	-3590
▁180	-3591
▁심각	-3592
▁이탈리아의	-3593
받고	-3594
▁생겨	-3595
▁우크라이나	-3596
다이	-3597
▁붉은	-3598
가에	-3599
▁북아	-3600
25	-3601
▁첨	-3602
FC	-3603
니의	-3604
음악	-3605
▁산맥	-3606
▁무장	-3607
▁창립	-3608
를린	-3609
▁앞서	-3610
비의	-3611
▁나는	-3612
▁각본	-3613
▁거절	-3614
▁점에서	-3615
90	-3616
▁나카	-3617
▁오픈	-3618
▁발표한	-3619
▁요새	-3620
▁하늘	-3621
▁스파	-3622
▁절대	-3623
▁사용하고	-3624
리트	-3625
▁제출	-3626
무원	-3627
국으로	-3628
슈타	-3629
▁뜻한다	-3630
▁기사	-3631
령을	-3632
▁관할한다	-3633
▁건립	-3634
년에서	-3635
▁남서	-3636
▁발생한	-3637
▁낭	-3638
▁그것은	-3639
▁전쟁이	-3640
▁방출	-3641
▁저지	-3642
소와	-3643
▁고정	-3644
기에는	-3645
▁1974	-3646
▁행정구	-3647
산이	-3648
지이다	-3649
터는	-3650
▁붙여	-3651
데스	-3652
영화	-3653
▁길이는	-3654
타를	-3655
▁끝나	-3656
▁됐다	-3657
▁가능성이	-3658
▁투수	-3659
▁계획을	-3660
▁시작한	-3661
보를	-3662
술을	-3663
▁어렵	-3664
▁클래	-3665
▁국가의	-3666
▁통해서	-3667
▁팀이	-3668
▁베이징	-3669
▁워싱턴	-3670
▁짐	-3671
▁나와	-3672
▁시간이	-3673
▁살고	-3674
▁광고	-3675
▁스피	-3676
▁무기	-3677
▁185	-3678
▁차지했다	-3679
경제	-3680
당과	-3681
▁약간	-3682
▁계급	-3683
ir	-3684
르가	-3685
▁러시아의	-3686
공업	-3687
이와	-3688
▁도움	-3689
음에도	-3690
▁다음은	-3691
▁역을	-3692
리노	-3693
▁판결	-3694
병을	-3695
▁플랫	-3696
▁목적	-3697
시설	-3698
▁지원을	-3699
재를	-3700
▁전쟁을	-3701
▁찍	-3702
전과	-3703
자기	-3704
▁삭	-3705
▁스코틀랜드	-3706
▁정복	-3707
▁결과를	-3708
▁금융	-3709
▁거대한	-3710
▁프로그램이다	-3711
▁버스	-3712
▁인공	-3713
▁셰	-3714
▁반복	-3715
이었으며	-3716
세와	-3717
▁글로	-3718
▁역대	-3719
마의	-3720
우리	-3721
▁듀	-3722
▁머물	-3723
▁조합	-3724
um	-3725
문학	-3726
사인	-3727
형으로	-3728
▁차이가	-3729
▁마드리	-3730
▁서양	-3731
▁취급	-3732
더라도	-3733
▁위해서는	-3734
라크	-3735
자이	-3736
▁강의	-3737
▁되면	-3738
▁이른	-3739
익을	-3740
▁전후	-3741
ut	-3742
▁이르는	-3743
▁보는	-3744
▁펠	-3745
니어	-3746
▁데이비	-3747
으로도	-3748
▁수원	-3749
▁인터뷰	-3750
24	-3751
▁장악	-3752
렸고	-3753
▁청나라	-3754
▁그런데	-3755
▁1963	-3756
▁공산주의	-3757
▁합의	-3758
▁전설	-3759
▁무역	-3760
▁병사	-3761
만큼	-3762
▁튀	-3763
▁150	-3764
안의	-3765
에게서	-3766
▁SBS	-3767
지인	-3768
▁출입	-3769
세대	-3770
▁LG	-3771
▁이야기를	-3772
▁전용	-3773
ur	-3774
▁오래된	-3775
▁솔로	-3776
▁원정	-3777
▁처음에는	-3778
진은	-3779
▁독자	-3780
▁상당히	-3781
▁1971	-3782
일로	-3783
였으나	-3784
▁부활	-3785
쥐는	-3786
▁이중	-3787
▁요한	-3788
▁주고	-3789
▁비록	-3790
▁1968	-3791
▁높이는	-3792
▁문자	-3793
▁이용해	-3794
▁해당하는	-3795
▁다니	-3796
▁간단	-3797
지며	-3798
▁앞두고	-3799
왕이	-3800
분이	-3801
류가	-3802
차로	-3803
▁이유는	-3804
▁고등	-3805
▁얻어	-3806
법이	-3807
추어	-3808
▁해서	-3809
단과	-3810
인민공화국의	-3811
▁점을	-3812
▁주식	-3813
▁주어	-3814
▁1948	-3815
도르	-3816
▁1976	-3817
▁건조	-3818
히는	-3819
im	-3820
아서	-3821
스리그	-3822
경은	-3823
23	-3824
산에	-3825
▁팀을	-3826
▁공개된	-3827
BO	-3828
▁코미디	-3829
영은	-3830
▁34	-3831
▁강제	-3832
▁융	-3833
▁속한다	-3834
▁포함되어	-3835
석이	-3836
▁취득	-3837
▁스크	-3838
▁함수	-3839
▁욕	-3840
브리	-3841
▁활동하였다	-3842
라를	-3843
▁한번	-3844
_5	-3845
▁때부터	-3846
▁1975	-3847
경찰	-3848
치에	-3849
로드	-3850
▁투자	-3851
보드	-3852
테르	-3853
개가	-3854
버그	-3855
▁그것을	-3856
일러	-3857
화와	-3858
교를	-3859
▁대비	-3860
ay	-3861
바르	-3862
마스	-3863
▁건국	-3864
▁아테	-3865
▁이용한	-3866
▁반발	-3867
▁철학	-3868
▁1978	-3869
▁후에는	-3870
▁일으켰	-3871
▁나이	-3872
▁헤이	-3873
▁in	-3874
▁대표팀	-3875
▁이것을	-3876
제국	-3877
▁시티	-3878
▁행성	-3879
▁금속	-3880
▁논쟁	-3881
▁개시	-3882
▁운용	-3883
▁혼란	-3884
▁아침	-3885
▁기록하였다	-3886
▁도달	-3887
▁세종	-3888
▁하면	-3889
▁경성	-3890
▁숭	-3891
▁통제	-3892
▁번째로	-3893
음이	-3894
세계	-3895
▁생명	-3896
스러운	-3897
생을	-3898
▁두었다	-3899
▁방법을	-3900
▁전라북도	-3901
▁지식	-3902
실은	-3903
▁모여	-3904
▁삼각	-3905
▁보냈다	-3906
▁도중	-3907
▁영입	-3908
▁시즌을	-3909
▁받지	-3910
앤젤	-3911
▁시작하여	-3912
▁방향으로	-3913
▁트레이	-3914
고는	-3915
▁약속	-3916
▁1969	-3917
▁장식	-3918
▁본선	-3919
▁의료	-3920
소프트	-3921
▁1946	-3922
▁플랫폼	-3923
▁알게	-3924
아는	-3925
▁문서	-3926
리아의	-3927
CA	-3928
▁빠른	-3929
자들	-3930
▁반영	-3931
▁은하	-3932
▁말레이	-3933
타는	-3934
▁37	-3935
▁신인	-3936
모를	-3937
항공	-3938
▁타이완	-3939
▁때의	-3940
격으로	-3941
▁시작으로	-3942
▁사건을	-3943
▁St	-3944
▁아메리카	-3945
▁하드	-3946
▁작품을	-3947
▁이제	-3948
▁프란	-3949
▁카이	-3950
대회	-3951
사건	-3952
ver	-3953
▁공을	-3954
▁부임	-3955
나이티	-3956
수록	-3957
▁시간을	-3958
▁이다	-3959
드시	-3960
지자	-3961
현은	-3962
증을	-3963
▁이민	-3964
▁발표하였다	-3965
▁양성	-3966
리케	-3967
▁소비에	-3968
▁도망	-3969
▁w	-3970
▁오토	-3971
▁로스앤젤	-3972
▁빠져	-3973
▁곳에서	-3974
▁네트워크	-3975
동으로	-3976
▁아들이	-3977
▁넘는	-3978
세로	-3979
조판	-3980
▁써	-3981
로그	-3982
물이다	-3983
▁흡수	-3984
▁사망했다	-3985
os	-3986
▁역임했다	-3987
▁경계	-3988
▁청년	-3989
▁단백질	-3990
▁선보	-3991
▁에도	-3992
▁명이	-3993
▁상륙	-3994
▁출연하였고	-3995
미를	-3996
▁합격	-3997
▁각각의	-3998
▁공식적으로	-3999
▁베를린	-4000
▁율	-4001
▁포기	-4002
▁포위	-4003
▁린	-4004
마이	-4005
▁유나이티	-4006
▁잇는	-4007
▁대략	-4008
▁식민지	-4009
▁대공	-4010
▁원주	-4011
▁벨기에	-4012
▁랭	-4013
▁받게	-4014
▁보아	-4015
▁아시안	-4016
예술	-4017
▁지붕	-4018
▁슬로	-4019
em	-4020
종을	-4021
▁종류의	-4022
▁지방의	-4023
▁박정	-4024
▁채용	-4025
▁말았다	-4026
차원	-4027
▁생긴	-4028
▁국회의원	-4029
기압	-4030
▁아파	-4031
▁그러한	-4032
▁수상했다	-4033
▁무엇	-4034
▁만주	-4035
시킨다	-4036
▁꼭	-4037
▁강점	-4038
▁승진	-4039
▁보낸	-4040
미가	-4041
▁좁	-4042
▁음력	-4043
▁이들의	-4044
▁롯	-4045
▁규칙	-4046
▁높아	-4047
▁논란이	-4048
▁지니	-4049
통을	-4050
▁진입	-4051
▁해에	-4052
▁개최된	-4053
▁않았고	-4054
▁기록한	-4055
▁벼	-4056
▁비율	-4057
니아의	-4058
▁사용되고	-4059
페이	-4060
루는	-4061
하마	-4062
▁탈출	-4063
▁거래	-4064
▁검찰	-4065
▁소수	-4066
▁미드	-4067
▁구속	-4068
▁히데	-4069
▁동남	-4070
▁버전	-4071
▁롤	-4072
▁부상	-4073
리즘	-4074
▁대성	-4075
▁앞에	-4076
▁육상	-4077
▁호텔	-4078
▁수사	-4079
▁응용	-4080
▁모리	-4081
▁전공	-4082
▁했던	-4083
▁것처럼	-4084
▁동의	-4085
▁가서	-4086
▁지키	-4087
▁아들로	-4088
▁백작	-4089
▁것이라	-4090
▁대학교에서	-4091
패를	-4092
해도	-4093
▁1949	-4094
▁이뤄	-4095
등이	-4096
▁하나는	-4097
차가	-4098
번째로	-4099
▁의회	-4100
▁주둔	-4101
22	-4102
▁한반	-4103
▁기술을	-4104
▁온라인	-4105
저우	-4106
터를	-4107
▁선수가	-4108
▁자살	-4109
파는	-4110
님의	-4111
▁체계	-4112
하였던	-4113
▁1964	-4114
식에	-4115
▁시에	-4116
되면	-4117
▁운동을	-4118
라와	-4119
전문	-4120
▁청소년	-4121
노동	-4122
▁55	-4123
명에	-4124
기에서	-4125
들이다	-4126
▁쫓	-4127
▁힐	-4128
▁논의	-4129
▁수송	-4130
▁총독	-4131
▁보조	-4132
행위	-4133
▁1962	-4134
었다고	-4135
▁고속	-4136
▁벡	-4137
▁여기에	-4138
▁프로세	-4139
▁달라	-4140
▁마리	-4141
▁갈라	-4142
▁어떠	-4143
▁돌아가	-4144
지원	-4145
▁방영된	-4146
경이	-4147
현의	-4148
▁등급	-4149
▁다르다	-4150
▁이전의	-4151
▁대수	-4152
▁층	-4153
▁경우는	-4154
▁탈락	-4155
▁유사한	-4156
▁사건이	-4157
▁발견된	-4158
▁내의	-4159
▁태풍	-4160
▁인도네시아	-4161
▁공통	-4162
▁중이다	-4163
▁방사	-4164
▁왼쪽	-4165
▁진압	-4166
▁제대로	-4167
▁후속	-4168
▁집행	-4169
▁피해를	-4170
▁작품이다	-4171
▁예측	-4172
▁학문	-4173
▁군대를	-4174
안은	-4175
▁불법	-4176
▁역이다	-4177
▁지냈	-4178
▁변경되었다	-4179
▁1977	-4180
조합	-4181
▁끝난	-4182
▁반드시	-4183
▁출신으로	-4184
▁동작	-4185
에르	-4186
▁맡아	-4187
▁수집	-4188
▁거리	-4189
중앙	-4190
겠다는	-4191
▁에피소	-4192
▁형태를	-4193
▁임진	-4194
▁출간	-4195
협회	-4196
면으로	-4197
▁것이며	-4198
▁연재	-4199
▁경기는	-4200
▁플라	-4201
구에서	-4202
스케	-4203
▁신성	-4204
▁맛	-4205
▁맞이	-4206
적의	-4207
▁사단	-4208
교통	-4209
▁하였으나	-4210
▁꺾	-4211
▁기자	-4212
▁보장	-4213
▁특별한	-4214
▁명명	-4215
▁성을	-4216
▁존재하는	-4217
▁동원	-4218
▁국무	-4219
▁지금의	-4220
방을	-4221
▁보컬	-4222
미의	-4223
▁지어	-4224
론은	-4225
프를	-4226
▁뉴스	-4227
▁1967	-4228
▁서비스를	-4229
▁렌	-4230
▁공화	-4231
▁되자	-4232
▁열렸다	-4233
br	-4234
▁75	-4235
▁들어서	-4236
연맹	-4237
▁깊은	-4238
▁미니	-4239
▁작전	-4240
▁마이클	-4241
▁엔터테인먼	-4242
▁진화	-4243
▁프리미	-4244
▁늦	-4245
관과	-4246
조로	-4247
▁고용	-4248
▁운전	-4249
▁독특	-4250
플레이	-4251
▁배출	-4252
타이	-4253
▁그와	-4254
상태	-4255
▁남은	-4256
▁지급	-4257
▁오른쪽	-4258
론의	-4259
▁평가를	-4260
▁생존	-4261
▁분쟁	-4262
▁셋	-4263
▁나치	-4264
주의를	-4265
▁마지막으로	-4266
항을	-4267
▁파악	-4268
▁목표로	-4269
▁요코	-4270
▁중세	-4271
▁탁	-4272
▁나타내는	-4273
▁39	-4274
▁리더	-4275
▁댄	-4276
▁변환	-4277
뿐만	-4278
진의	-4279
▁사법	-4280
▁창단	-4281
기간	-4282
▁농민	-4283
▁둘째	-4284
▁알려졌다	-4285
35	-4286
제와	-4287
▁로버트	-4288
호선	-4289
▁가을	-4290
▁받았고	-4291
▁연출	-4292
▁콘서	-4293
▁라고	-4294
▁덧	-4295
▁이후로	-4296
▁다수의	-4297
▁이룬다	-4298
▁계기로	-4299
▁진보	-4300
▁개발한	-4301
온은	-4302
▁능력을	-4303
▁의존	-4304
▁경우에	-4305
▁빠르게	-4306
▁PC	-4307
프레	-4308
▁정책을	-4309
▁승인	-4310
체육	-4311
▁엄청	-4312
▁않으며	-4313
▁주관	-4314
▁선교	-4315
▁글을	-4316
▁일찍	-4317
▁장군	-4318
린은	-4319
▁김영	-4320
▁참전	-4321
무라	-4322
▁세르비아	-4323
마트	-4324
▁사태	-4325
▁좌우	-4326
▁한국에서	-4327
섰다	-4328
▁저작	-4329
▁상승	-4330
고속도로	-4331
류는	-4332
▁목소	-4333
조사	-4334
▁쓰는	-4335
▁독립운동	-4336
▁하였으며	-4337
▁어떠한	-4338
▁둘러싸	-4339
▁빼앗	-4340
쿠라	-4341
▁해산	-4342
▁영화는	-4343
▁활동했다	-4344
▁사립	-4345
신으로	-4346
▁복합	-4347
곡을	-4348
▁늘어	-4349
▁태어났으며	-4350
▁무덤	-4351
▁라는	-4352
▁왕국의	-4353
▁CD	-4354
▁후지	-4355
등의	-4356
세한	-4357
▁세력	-4358
OS	-4359
장인	-4360
▁성인	-4361
▁가졌다	-4362
▁관료	-4363
▁소비에트	-4364
없는	-4365
▁세인트	-4366
▁아버지는	-4367
▁문헌	-4368
▁외부	-4369
기까지	-4370
베르크	-4371
▁1965	-4372
▁썼다	-4373
▁학술	-4374
▁정확한	-4375
바로	-4376
▁요소	-4377
▁전철	-4378
락을	-4379
▁호는	-4380
▁챔피언스리그	-4381
▁되며	-4382
▁웨스트	-4383
▁개신	-4384
▁없다는	-4385
▁니콜	-4386
▁천연	-4387
op	-4388
▁풍부	-4389
▁완공	-4390
▁발매된	-4391
▁올려	-4392
▁제외하고	-4393
▁지상역이다	-4394
▁기대	-4395
▁소녀	-4396
▁묶	-4397
통신	-4398
▁총리	-4399
▁틀	-4400
▁합성	-4401
▁1966	-4402
시티	-4403
▁양자	-4404
▁법칙	-4405
임이	-4406
▁대기	-4407
▁실질	-4408
▁대부분은	-4409
파를	-4410
▁연구를	-4411
▁48	-4412
으니	-4413
▁흉	-4414
▁노부	-4415
▁겐	-4416
▁FA	-4417
▁가문	-4418
▁소장	-4419
▁올리	-4420
▁포함하고	-4421
건을	-4422
▁급제	-4423
▁체코	-4424
▁효율	-4425
▁최다	-4426
▁에어	-4427
▁창조	-4428
▁프로젝트	-4429
▁나뉜	-4430
크가	-4431
▁향상	-4432
▁받을	-4433
▁지내	-4434
▁인접	-4435
▁홋	-4436
▁Z	-4437
표를	-4438
▁레드	-4439
▁새겨	-4440
▁일정	-4441
차는	-4442
▁서버	-4443
▁작품은	-4444
▁1961	-4445
왕은	-4446
▁교환	-4447
▁밀도는	-4448
▁쥐	-4449
▁일부는	-4450
축구	-4451
▁미군	-4452
▁모양의	-4453
▁롯데	-4454
▁대개	-4455
책을	-4456
▁라인	-4457
▁미디어	-4458
▁이집트	-4459
ter	-4460
▁예정이다	-4461
지컬	-4462
▁점점	-4463
▁신뢰	-4464
학에서	-4465
▁킹	-4466
아이	-4467
티노	-4468
▁감독을	-4469
▁성능	-4470
▁국경	-4471
▁우려	-4472
▁그레	-4473
화되어	-4474
▁흘러	-4475
▁오페	-4476
▁179	-4477
▁켄	-4478
났고	-4479
치와	-4480
부터는	-4481
▁미나	-4482
▁지은	-4483
▁김일	-4484
복을	-4485
▁기록이	-4486
▁SK	-4487
▁래	-4488
▁마케	-4489
▁프로그램을	-4490
진이	-4491
▁잡아	-4492
학은	-4493
▁회전	-4494
▁콘스탄	-4495
▁것이라는	-4496
▁자녀	-4497
ST	-4498
▁받는다	-4499
▁제어	-4500
▁그들이	-4501
▁반대로	-4502
▁1919	-4503
▁활동하고	-4504
▁갖는	-4505
국민	-4506
▁역으로	-4507
코는	-4508
▁포도	-4509
▁특이	-4510
▁컵	-4511
키스탄	-4512
이므로	-4513
▁마침내	-4514
▁전주	-4515
▁주장하였다	-4516
▁훗	-4517
▁간행	-4518
▁조작	-4519
마는	-4520
▁차별	-4521
▁갔다	-4522
▁불안	-4523
▁학위를	-4524
▁까	-4525
▁트로	-4526
름을	-4527
자로서	-4528
하였다고	-4529
▁의미를	-4530
nd	-4531
▁나이로	-4532
시에서	-4533
▁쓸	-4534
▁인기	-4535
▁전통적인	-4536
▁있음을	-4537
▁방법으로	-4538
▁대통령이	-4539
프리	-4540
▁위반	-4541
▁오스만	-4542
토의	-4543
▁소년	-4544
▁자신들의	-4545
연히	-4546
▁시즌에	-4547
망을	-4548
▁분할	-4549
▁올랐	-4550
여서	-4551
씨가	-4552
▁항성	-4553
▁브리	-4554
▁신청	-4555
게는	-4556
▁시카	-4557
▁헨리	-4558
▁불렀다	-4559
▁브루	-4560
▁오랫	-4561
▁이하	-4562
▁크고	-4563
자료	-4564
해가	-4565
▁단독	-4566
▁이성	-4567
▁하나인	-4568
질이	-4569
▁명확	-4570
▁띄	-4571
판이	-4572
▁베이스	-4573
▁대한민국에서는	-4574
▁베스트	-4575
으로서의	-4576
▁공업	-4577
▁해양	-4578
▁제작한	-4579
▁당시에는	-4580
되었을	-4581
주의의	-4582
▁문제로	-4583
▁반도	-4584
▁보관	-4585
▁뜻하는	-4586
▁공군	-4587
▁충청북도	-4588
▁뜻으로	-4589
▁관계가	-4590
▁함락	-4591
이센	-4592
▁당초	-4593
▁모아	-4594
▁그때	-4595
▁자이	-4596
47	-4597
▁1941	-4598
▁&	-4599
조직	-4600
▁처형	-4601
▁마치	-4602
▁왕국	-4603
카는	-4604
교는	-4605
▁and	-4606
일과	-4607
리적	-4608
▁출범	-4609
▁1944	-4610
▁지금까지	-4611
▁느끼	-4612
▁쓰고	-4613
▁동성	-4614
▁분열	-4615
26	-4616
▁차트	-4617
방의	-4618
▁스위스	-4619
▁오랫동안	-4620
▁로스앤젤레스	-4621
▁개막	-4622
▁꼽	-4623
▁죽었다	-4624
▁말에	-4625
45	-4626
▁향해	-4627
▁삽	-4628
▁쓰이는	-4629
▁조별	-4630
▁후보로	-4631
▁졸업하고	-4632
▁군주	-4633
▁e	-4634
▁없으며	-4635
니가	-4636
▁골을	-4637
개로	-4638
▁국회	-4639
▁번의	-4640
▁트랙	-4641
▁장관	-4642
▁=	-4643
▁보안	-4644
27	-4645
▁군의	-4646
▁출장	-4647
했었다	-4648
▁나타난다	-4649
▁플레이오프	-4650
▁훗날	-4651
▁부르는	-4652
oc	-4653
식과	-4654
▁검사	-4655
▁덴마크	-4656
▁노벨	-4657
▁도쿠	-4658
카이도	-4659
▁스티	-4660
각을	-4661
▁나왔다	-4662
라며	-4663
▁예비	-4664
▁합쳐	-4665
▁횡	-4666
우의	-4667
▁1000	-4668
▁택	-4669
▁기둥	-4670
▁대표하는	-4671
▁등장한다	-4672
▁메시	-4673
▁일치	-4674
▁조절	-4675
▁내용은	-4676
▁역사적	-4677
▁교육을	-4678
계획	-4679
부인	-4680
▁학습	-4681
▁이루어졌다	-4682
메리	-4683
▁쳐	-4684
▁잉글랜드의	-4685
시키기	-4686
되었다가	-4687
▁만들어졌다	-4688
▁상품	-4689
▁작업을	-4690
▁조선의	-4691
향을	-4692
▁일본에	-4693
▁포함한다	-4694
터가	-4695
▁로켓	-4696
▁이름의	-4697
ht	-4698
개혁	-4699
령이	-4700
▁파라	-4701
리히	-4702
리다	-4703
▁혐의로	-4704
선수	-4705
▁선정되었다	-4706
▁편찬	-4707
▁완료	-4708
네스	-4709
▁명을	-4710
포르	-4711
▁킬	-4712
▁펼쳐	-4713
▁가지는	-4714
▁그렇게	-4715
▁한정	-4716
▁군이다	-4717
▁KBO	-4718
▁적절	-4719
였지만	-4720
질랜드	-4721
▁여객철도	-4722
▁출시되었다	-4723
주었다	-4724
▁이후의	-4725
양을	-4726
왜란	-4727
▁추천	-4728
여자	-4729
▁보병	-4730
▁발굴	-4731
한국	-4732
▁연관	-4733
▁민주당	-4734
▁부산광역시	-4735
총독	-4736
▁무너	-4737
▁국제공항	-4738
▁분위	-4739
▁연대	-4740
▁훌	-4741
색의	-4742
▁명칭은	-4743
_6	-4744
▁준우	-4745
들로부터	-4746
ation	-4747
▁시리아	-4748
▁크로아	-4749
루가	-4750
▁규모의	-4751
내에	-4752
▁목록이다	-4753
▁성적	-4754
▁재배	-4755
▁포함하여	-4756
▁카르	-4757
▁시작된	-4758
천시	-4759
ice	-4760
▁언제	-4761
▁누구	-4762
▁연산	-4763
▁감독으로	-4764
▁저서	-4765
▁터미널	-4766
▁시작한다	-4767
▁음악을	-4768
▁이르러	-4769
▁발견되었다	-4770
▁구현	-4771
▁바깥	-4772
▁페르시아	-4773
무부	-4774
▁가담	-4775
▁앉	-4776
▁메인	-4777
▁동아	-4778
이었지만	-4779
▁김정	-4780
▁국도	-4781
▁아사	-4782
▁주전	-4783
▁아미	-4784
디션	-4785
시험	-4786
츠는	-4787
▁실현	-4788
▁팝	-4789
화한	-4790
명과	-4791
▁평안	-4792
28	-4793
치아	-4794
▁안에서	-4795
▁임진왜란	-4796
▁뉴질랜드	-4797
고의	-4798
영의	-4799
▁경주	-4800
▁받아들여	-4801
해져	-4802
▁프로듀서	-4803
▁침략	-4804
▁발발	-4805
▁위성	-4806
▁직업	-4807
▁도와	-4808
▁마이크로소프트	-4809
바라	-4810
동과	-4811
▁저술	-4812
▁일어났다	-4813
▁섞	-4814
▁활성	-4815
ag	-4816
터리	-4817
▁의무	-4818
에만	-4819
▁닥	-4820
치게	-4821
▁사람들의	-4822
▁일부를	-4823
▁유일하게	-4824
겠다	-4825
화되었다	-4826
▁유형문화재	-4827
▁중인	-4828
▁감독이	-4829
▁가치가	-4830
▁이루고	-4831
박물	-4832
마을	-4833
▁주지	-4834
▁놓고	-4835
▁입장을	-4836
▁국민의	-4837
▁조선시대	-4838
▁침입	-4839
론이	-4840
라이언	-4841
▁공헌	-4842
▁길을	-4843
▁부하	-4844
▁테이	-4845
▁헤르	-4846
▁경제적	-4847
▁1939	-4848
▁1958	-4849
▁정치인이다	-4850
무늬	-4851
미야	-4852
▁거두었다	-4853
▁망명	-4854
▁활약을	-4855
국가	-4856
관에서	-4857
▁등판	-4858
▁미야	-4859
▁삼국	-4860
▁승객	-4861
중의	-4862
▁올렸다	-4863
▁근본	-4864
▁소송	-4865
▁스페인의	-4866
게임	-4867
▁고유	-4868
▁취소	-4869
▁주어진	-4870
타르	-4871
▁많아	-4872
▁유행	-4873
▁600	-4874
▁1947	-4875
기념	-4876
▁속한	-4877
▁지켜	-4878
위와	-4879
▁후기	-4880
▁부상을	-4881
거운	-4882
누스	-4883
공화국	-4884
리그의	-4885
▁제공한다	-4886
▁기울	-4887
▁1956	-4888
▁독특한	-4889
▁갔	-4890
▁주택	-4891
재판	-4892
▁임금	-4893
▁새롭게	-4894
▁도시이다	-4895
▁확립	-4896
32	-4897
▁정비	-4898
레옹	-4899
▁지시	-4900
▁데뷔하였다	-4901
▁중화민국	-4902
▁상당한	-4903
로와	-4904
체와	-4905
▁부분을	-4906
▁선거에서	-4907
▁연결하는	-4908
▁무시	-4909
어이다	-4910
th	-4911
▁갤	-4912
▁47	-4913
▁마무	-4914
▁어린이	-4915
▁예수	-4916
▁성적을	-4917
▁중에는	-4918
▁한나라	-4919
자들에게	-4920
▁텍사	-4921
▁DNA	-4922
▁바라	-4923
▁프로그래	-4924
▁자리잡	-4925
▁지역으로	-4926
37	-4927
▁군인	-4928
산화	-4929
▁잡지	-4930
▁편이다	-4931
실의	-4932
▁거듭	-4933
▁고문	-4934
▁전파	-4935
▁뮤지컬	-4936
공사	-4937
▁얻은	-4938
▁처벌	-4939
▁해당한다	-4940
함과	-4941
▁뚜	-4942
들에서	-4943
▁다르게	-4944
▁제일	-4945
▁박정희	-4946
36	-4947
▁테러	-4948
로마	-4949
▁희생	-4950
▁이들을	-4951
터의	-4952
▁질병	-4953
▁소속으로	-4954
▁바뀌었다	-4955
속에	-4956
양의	-4957
우주	-4958
▁개입	-4959
▁상태로	-4960
석의	-4961
▁변화를	-4962
▁k	-4963
▁이시	-4964
▁곡을	-4965
▁트랜	-4966
▁혼합	-4967
스럽게	-4968
▁않게	-4969
▁정차	-4970
▁영상	-4971
▁화물	-4972
▁사임	-4973
▁캐나다의	-4974
▁치러	-4975
▁스미	-4976
▁정기	-4977
산시	-4978
▁추구	-4979
▁가스	-4980
▁부대	-4981
마르	-4982
SA	-4983
▁단편	-4984
▁받았으며	-4985
▁나뉜다	-4986
재로	-4987
▁다스	-4988
체스터	-4989
▁160	-4990
▁아테네	-4991
▁의혹	-4992
그라	-4993
▁주최	-4994
▁상황에서	-4995
▁설치된	-4996
ce	-4997
▁켈	-4998
▁들고	-4999
▁통산	-5000
▁어려운	-5001
안이	-5002
포를	-5003
▁정지	-5004
▁피아노	-5005
▁아스	-5006
▁유럽의	-5007
▁상위	-5008
어야	-5009
▁사용된	-5010
▁전형	-5011
격한	-5012
▁레오	-5013
▁형사	-5014
▁시인	-5015
루를	-5016
연을	-5017
토리	-5018
▁분명	-5019
▁나폴레옹	-5020
▁앞에서	-5021
▁800	-5022
▁확률	-5023
사무	-5024
▁사냥	-5025
▁어깨	-5026
되는데	-5027
▁나타내	-5028
하지는	-5029
고가	-5030
▁일으키	-5031
▁뜨	-5032
▁공연을	-5033
▁그레이	-5034
▁특정한	-5035
▁챔피언십	-5036
사이트	-5037
▁작품으로	-5038
호에	-5039
▁방정	-5040
▁미드필	-5041
▁설립되었다	-5042
▁인구가	-5043
▁프로이센	-5044
국제	-5045
뮤니	-5046
▁하위	-5047
층의	-5048
정과	-5049
평가	-5050
색으로	-5051
▁가문의	-5052
▁맡은	-5053
▁장남	-5054
▁벌어	-5055
▁1954	-5056
▁철수	-5057
▁영업	-5058
▁준다	-5059
리나	-5060
천군	-5061
▁유기	-5062
▁상대적으로	-5063
▁지위를	-5064
▁따로	-5065
▁릴	-5066
▁작곡가	-5067
▁대리	-5068
▁임대	-5069
▁만들고	-5070
민주당	-5071
▁기회를	-5072
고등	-5073
▁사업을	-5074
▁접촉	-5075
▁득표	-5076
▁곡은	-5077
레는	-5078
▁밝히	-5079
텐츠	-5080
▁수영	-5081
▁대부분이	-5082
함이	-5083
▁인쇄	-5084
▁장치	-5085
법으로	-5086
▁자극	-5087
▁샤를	-5088
례를	-5089
▁페이	-5090
▁제공하는	-5091
▁톰	-5092
▁세계의	-5093
토는	-5094
▁넓이는	-5095
▁스카	-5096
▁인종	-5097
▁상을	-5098
리우스	-5099
족이	-5100
▁듣고	-5101
▁스탠	-5102
▁세력을	-5103
▁멀리	-5104
▁어디	-5105
시리즈	-5106
▁장교	-5107
▁다소	-5108
▁보았다	-5109
비로	-5110
▁하에	-5111
▁Q	-5112
▁64	-5113
▁음식	-5114
▁미드필더	-5115
29	-5116
▁법정	-5117
한의	-5118
BA	-5119
-4	-5120
▁황금	-5121
▁반란을	-5122
▁후계	-5123
에른	-5124
키가	-5125
▁g	-5126
▁곳으로	-5127
▁나누어	-5128
후에	-5129
되었다고	-5130
인도	-5131
▁심각한	-5132
▁시나	-5133
우수	-5134
▁금메달을	-5135
▁돕	-5136
▁코드	-5137
슨의	-5138
▁저녁	-5139
▁그래픽	-5140
▁운영하고	-5141
▁보유하고	-5142
도서	-5143
공의	-5144
클레	-5145
▁개신교	-5146
▁지금은	-5147
▁개설	-5148
▁공사	-5149
우가	-5150
▁시상	-5151
하므로	-5152
▁인디언	-5153
▁참여했다	-5154
▁일컫	-5155
▁절반	-5156
▁46	-5157
▁내렸다	-5158
▁심지	-5159
▁묵	-5160
▁계통	-5161
중학교는	-5162
▁가진다	-5163
강의	-5164
▁조종	-5165
ER	-5166
▁병합	-5167
▁못하였다	-5168
었기	-5169
▁초기의	-5170
▁단지	-5171
▁돈을	-5172
▁해야	-5173
▁가나	-5174
▁캔	-5175
▁나아가	-5176
족은	-5177
▁1952	-5178
▁서울대학교	-5179
▁다수	-5180
▁한국어	-5181
▁액션	-5182
▁재건	-5183
▁팽	-5184
▁1942	-5185
입니다	-5186
▁소방	-5187
▁사람들을	-5188
별로	-5189
▁알파	-5190
▁다다	-5191
▁아이돌	-5192
▁니시	-5193
▁발탁	-5194
▁프리미어	-5195
▁자리에	-5196
▁단위	-5197
▁탈퇴	-5198
▁한글	-5199
▁효과를	-5200
주의적	-5201
ri	-5202
▁이기	-5203
▁도모	-5204
▁헝가리	-5205
▁이름이다	-5206
머스	-5207
▁설득	-5208
▁아라	-5209
▁필요가	-5210
퍼드	-5211
▁히틀	-5212
▁In	-5213
▁광복	-5214
▁해도	-5215
점의	-5216
▁승려	-5217
▁고속도로	-5218
시스	-5219
▁시스템을	-5220
▁사실이	-5221
목을	-5222
주고	-5223
▁엄청난	-5224
31	-5225
▁돌아와	-5226
파가	-5227
▁1943	-5228
▁이혼	-5229
▁차이	-5230
▁사건은	-5231
▁선전	-5232
상이다	-5233
관계	-5234
▁65	-5235
▁노래를	-5236
▁샘	-5237
▁콤	-5238
▁김대	-5239
▁출연하였다	-5240
보살	-5241
키의	-5242
▁사우	-5243
사우	-5244
▁왕이	-5245
▁갖추고	-5246
▁소련의	-5247
▁데이비드	-5248
직에	-5249
▁벌어진	-5250
동생	-5251
속의	-5252
▁바이에른	-5253
▁있었다고	-5254
▁맞아	-5255
▁아티	-5256
▁곽	-5257
▁조선총독	-5258
38	-5259
▁두려	-5260
▁120	-5261
▁연구에	-5262
▁의학	-5263
의회	-5264
▁개칭	-5265
▁벗어나	-5266
▁존재하지	-5267
▁연예	-5268
▁크기	-5269
야의	-5270
▁내용이	-5271
▁떠났다	-5272
▁후원	-5273
▁1959	-5274
▁이른다	-5275
▁전직	-5276
▁행동을	-5277
▁시리즈의	-5278
▁겹	-5279
▁남쪽으로	-5280
▁빙	-5281
왕을	-5282
▁도요	-5283
▁이로써	-5284
▁진행되었다	-5285
▁번호는	-5286
유가	-5287
▁몰아	-5288
물에	-5289
마를	-5290
▁스마트	-5291
성군	-5292
▁통상	-5293
▁점이	-5294
▁징역	-5295
제에서	-5296
▁빅토	-5297
▁기다	-5298
치지	-5299
▁총선	-5300
▁변형	-5301
▁않지만	-5302
▁폐쇄	-5303
▁대체로	-5304
▁있었기	-5305
▁다운	-5306
▁미사일	-5307
▁비롯하여	-5308
▁미국과	-5309
즈가	-5310
▁굳	-5311
▁리처	-5312
학자이다	-5313
▁중부	-5314
▁나타나는	-5315
데이	-5316
▁성공을	-5317
▁아르헨티나	-5318
▁퀸	-5319
타의	-5320
▁마르크	-5321
▁오직	-5322
▁동안에	-5323
오의	-5324
▁왕조	-5325
▁창원	-5326
▁속해	-5327
▁일정한	-5328
▁자격	-5329
▁일시	-5330
▁전까지	-5331
▁다음의	-5332
▁h	-5333
▁관여	-5334
▁도시의	-5335
카가	-5336
▁선생	-5337
▁1910	-5338
보고	-5339
▁플래	-5340
▁곳이다	-5341
▁1955	-5342
▁돼	-5343
▁가게	-5344
▁지도자	-5345
전에서는	-5346
▁인권	-5347
ak	-5348
▁단계	-5349
▁필요하다	-5350
▁임의의	-5351
▁접한다	-5352
▁말레이시아	-5353
▁네이	-5354
▁적합	-5355
▁기록은	-5356
질의	-5357
▁유한	-5358
노는	-5359
▁발생하는	-5360
판은	-5361
▁인지	-5362
비치	-5363
▁개조	-5364
▁쓰여	-5365
▁투쟁	-5366
에서만	-5367
▁제이	-5368
대장	-5369
▁해상	-5370
▁닌	-5371
▁섬의	-5372
강에	-5373
▁노출	-5374
▁문을	-5375
▁프린	-5376
▁엠	-5377
▁대회에	-5378
기록	-5379
▁대통령의	-5380
▁연고	-5381
▁프라	-5382
▁일어나는	-5383
-5	-5384
▁바닥	-5385
▁행위	-5386
▁여겨진다	-5387
▁얻을	-5388
▁남겼다	-5389
▁되는데	-5390
▁수상하였다	-5391
인들을	-5392
▁닛	-5393
학교를	-5394
▁사망한	-5395
▁전부	-5396
오스	-5397
평균	-5398
었을	-5399
▁녹색	-5400
▁시위	-5401
▁나타낸다	-5402
▁못하는	-5403
▁정교	-5404
토니	-5405
사이다	-5406
▁178	-5407
▁드라이	-5408
디는	-5409
▁여러가지	-5410
▁특징이다	-5411
듯이	-5412
▁극장	-5413
▁지니고	-5414
▁이전에는	-5415
▁홍보	-5416
루의	-5417
러의	-5418
-20	-5419
▁영웅	-5420
련의	-5421
▁사용하였다	-5422
켓몬	-5423
▁만다	-5424
▁안동	-5425
▁의심	-5426
▁프로토	-5427
중을	-5428
▁부분이	-5429
▁책임을	-5430
스트로	-5431
공을	-5432
▁매일	-5433
▁올림픽에	-5434
▁나고	-5435
▁루마	-5436
▁선임	-5437
영을	-5438
▁가수이다	-5439
▁픽	-5440
▁부담	-5441
▁명나라	-5442
▁깃	-5443
동맹	-5444
▁소멸	-5445
▁집권	-5446
▁이후에도	-5447
▁종사	-5448
청은	-5449
▁완전한	-5450
▁긍	-5451
▁리버	-5452
▁알바	-5453
_7	-5454
느냐	-5455
인에게	-5456
▁세상을	-5457
▁그로	-5458
고기	-5459
▁지지를	-5460
▁그리하여	-5461
네이	-5462
▁명령을	-5463
▁추기	-5464
▁북쪽으로	-5465
▁대통령은	-5466
▁1953	-5467
드라	-5468
▁상하이	-5469
년부터는	-5470
▁여섯	-5471
▁나온다	-5472
ia	-5473
했다가	-5474
▁전쟁에	-5475
브라	-5476
학에	-5477
▁구입	-5478
▁궤도	-5479
▁아들인	-5480
▁시카고	-5481
▁49	-5482
▁현역	-5483
▁동해	-5484
▁신호	-5485
▁역사를	-5486
▁높다	-5487
▁전면	-5488
▁찰스	-5489
▁전력	-5490
39	-5491
▁복원	-5492
▁어머니는	-5493
▁프랑크	-5494
▁오프	-5495
▁세웠	-5496
ap	-5497
▁부친	-5498
관이다	-5499
▁사퇴	-5500
▁으로	-5501
사랑	-5502
▁재개	-5503
활동을	-5504
▁위로	-5505
▁전쟁에서	-5506
▁l	-5507
▁끌어	-5508
▁관련이	-5509
▁불렸다	-5510
▁1914	-5511
34	-5512
비에	-5513
▁즉시	-5514
▁다음날	-5515
▁메이지	-5516
▁선박	-5517
▁행렬	-5518
▁이르렀다	-5519
처를	-5520
▁데에	-5521
▁싱가	-5522
▁운영하는	-5523
▁통계	-5524
▁영화배우이다	-5525
▁춤	-5526
▁눈에	-5527
▁1936	-5528
▁일부가	-5529
▁1957	-5530
▁세계적으로	-5531
▁정권	-5532
▁말하는	-5533
▁진주	-5534
▁부진	-5535
▁개체	-5536
▁밀려	-5537
▁사마	-5538
▁지구의	-5539
▁뮌	-5540
▁학살	-5541
남도의	-5542
▁끝내	-5543
▁속의	-5544
▁창작	-5545
유를	-5546
▁카드	-5547
▁IS	-5548
투스	-5549
만으로	-5550
▁왕의	-5551
▁무게	-5552
▁대한민국에서	-5553
▁와이	-5554
▁게임을	-5555
▁위치를	-5556
▁빚	-5557
▁전송	-5558
문제	-5559
▁중학교이다	-5560
▁논문	-5561
▁선출되었다	-5562
▁안드로	-5563
년도	-5564
소설	-5565
▁수요	-5566
▁없을	-5567
▁노르웨이	-5568
▁내세	-5569
행정	-5570
▁주장한다	-5571
다란	-5572
실이	-5573
타운	-5574
▁초에	-5575
▁브라운	-5576
▁주장을	-5577
리며	-5578
평을	-5579
▁1938	-5580
▁프리드리	-5581
▁분노	-5582
ul	-5583
니즘	-5584
▁44	-5585
▁표면	-5586
▁웅	-5587
AR	-5588
▁나타났다	-5589
▁돌려	-5590
▁원소	-5591
▁이상이	-5592
▁자전	-5593
our	-5594
▁물을	-5595
▁느낌	-5596
▁갑자기	-5597
▁재학	-5598
우를	-5599
메리칸	-5600
분으로	-5601
▁대장	-5602
▁인용	-5603
▁파르	-5604
▁유효	-5605
▁크다	-5606
▁이른바	-5607
▁조지아	-5608
▁게다가	-5609
▁부분은	-5610
공산	-5611
▁골든	-5612
▁양의	-5613
만한	-5614
▁순간	-5615
파로	-5616
▁격파	-5617
혁명	-5618
▁조카	-5619
되어야	-5620
▁만든다	-5621
▁이들이	-5622
▁싸우	-5623
▁커뮤니	-5624
▁이끌었다	-5625
▁아름다운	-5626
▁연습	-5627
▁초기에	-5628
▁윗	-5629
▁덧붙	-5630
▁전쟁의	-5631
▁1918	-5632
▁텍사스	-5633
▁힙	-5634
▁기소	-5635
▁들어갔다	-5636
▁차지하고	-5637
▁똑	-5638
▁동북	-5639
민의	-5640
자동차	-5641
▁주에	-5642
받는	-5643
▁비상	-5644
ie	-5645
르기	-5646
속은	-5647
단이다	-5648
est	-5649
▁근처에	-5650
▁맞서	-5651
▁스키	-5652
츠의	-5653
▁내놓	-5654
▁완벽	-5655
▁미국은	-5656
▁상황을	-5657
▁1937	-5658
▁올림픽에서	-5659
목에	-5660
비스	-5661
▁공화국의	-5662
프랑	-5663
▁하기도	-5664
▁기록되어	-5665
▁책을	-5666
▁사운드	-5667
▁WW	-5668
▁유배	-5669
▁참가했다	-5670
▁말이	-5671
모가	-5672
▁상태에서	-5673
▁다케	-5674
▁발언	-5675
▁방식을	-5676
학자들은	-5677
▁역임하였다	-5678
▁대의	-5679
▁42	-5680
▁내셔널	-5681
▁아래와	-5682
▁구역	-5683
에선	-5684
▁탐사	-5685
가타	-5686
▁Ch	-5687
ON	-5688
감이	-5689
티오	-5690
트릭	-5691
▁US	-5692
▁사용했다	-5693
▁만한	-5694
▁권력을	-5695
▁나왔	-5696
▁닫	-5697
▁임무	-5698
▁남아있	-5699
▁분야에서	-5700
▁연결되어	-5701
▁56	-5702
▁벡터	-5703
▁화려	-5704
▁역에서	-5705
부장	-5706
▁유학	-5707
92	-5708
슬러	-5709
▁포항	-5710
art	-5711
▁호소	-5712
▁않으면	-5713
▁나들	-5714
렸으며	-5715
서와	-5716
중한	-5717
▁무한	-5718
▁갖는다	-5719
▁추가로	-5720
▁노스	-5721
▁보여준다	-5722
계약	-5723
▁따서	-5724
▁이루는	-5725
호와	-5726
▁되돌	-5727
▁코르	-5728
▁라이트	-5729
▁마크	-5730
▁후임	-5731
부대	-5732
VD	-5733
하여야	-5734
▁드래프트	-5735
산과	-5736
▁유치	-5737
백만	-5738
75	-5739
▁꾸준	-5740
목으로	-5741
▁문제는	-5742
IA	-5743
▁당시에	-5744
카의	-5745
▁촌	-5746
에이	-5747
▁기록하며	-5748
▁향토	-5749
▁열차가	-5750
생물	-5751
▁상대식	-5752
린의	-5753
바는	-5754
▁수의	-5755
▁소식을	-5756
▁달려	-5757
▁짜	-5758
▁1935	-5759
▁발간	-5760
▁측면	-5761
▁도덕	-5762
▁한일	-5763
씨를	-5764
▁개국	-5765
▁없게	-5766
▁전투를	-5767
가인	-5768
▁작동	-5769
▁가슴	-5770
라에	-5771
▁기병	-5772
▁클레	-5773
▁문제에	-5774
▁일으켜	-5775
▁i	-5776
드레	-5777
▁밝혀졌다	-5778
▁가와	-5779
▁장수	-5780
▁복잡한	-5781
▁쿠데	-5782
▁지속적으로	-5783
▁싸움	-5784
46	-5785
▁서쪽으로	-5786
▁해리	-5787
환으로	-5788
▁분해	-5789
▁터널	-5790
▁해발	-5791
▁십자	-5792
▁잠수	-5793
▁조선시대의	-5794
▁방해	-5795
▁게임이다	-5796
조참	-5797
▁카운티는	-5798
▁NH	-5799
감독	-5800
되게	-5801
▁후쿠오카	-5802
▁타임	-5803
▁출전하여	-5804
▁마무리	-5805
▁58	-5806
▁공중	-5807
발을	-5808
월의	-5809
항은	-5810
▁신체	-5811
▁동쪽으로	-5812
▁그것이	-5813
▁이명	-5814
▁입고	-5815
▁파트	-5816
▁패션	-5817
▁최대의	-5818
형에	-5819
되지만	-5820
았으나	-5821
▁그곳에서	-5822
▁사건으로	-5823
▁입단하였다	-5824
▁겉	-5825
▁알고리즘	-5826
군에서	-5827
▁태양의	-5828
름이	-5829
▁조건을	-5830
열을	-5831
사관	-5832
▁받아들이	-5833
▁암컷	-5834
환을	-5835
▁함경	-5836
과대학	-5837
▁로드	-5838
▁상속	-5839
▁양쪽	-5840
▁무사	-5841
▁스케	-5842
▁단순한	-5843
▁복무	-5844
▁의식	-5845
사람	-5846
탄을	-5847
▁비례	-5848
▁하여금	-5849
▁구매	-5850
▁참가한	-5851
▁형식으로	-5852
33	-5853
▁대상이	-5854
소송	-5855
▁브레	-5856
ik	-5857
▁루트	-5858
▁서술	-5859
▁수리	-5860
▁왕조의	-5861
▁김성	-5862
▁방지	-5863
즈를	-5864
어에서	-5865
▁영화의	-5866
▁블라	-5867
어버	-5868
▁개찰	-5869
의가	-5870
▁티베	-5871
▁그들을	-5872
스트를	-5873
▁명칭을	-5874
▁직전	-5875
모는	-5876
▁선포	-5877
▁탄핵	-5878
▁중추	-5879
▁후인	-5880
렬한	-5881
▁권력	-5882
▁방법은	-5883
이닝	-5884
▁로봇	-5885
▁수석	-5886
범위	-5887
▁빌보드	-5888
코의	-5889
쿠스	-5890
▁고위	-5891
og	-5892
사단	-5893
사전	-5894
인인	-5895
▁AFC	-5896
▁로마의	-5897
98	-5898
▁언덕	-5899
▁위에서	-5900
야는	-5901
행성	-5902
▁가이	-5903
▁동양	-5904
▁남아프리카	-5905
조차	-5906
▁신학	-5907
▁특성	-5908
▁아이디	-5909
▁상실	-5910
론에	-5911
역과	-5912
정치	-5913
▁도전	-5914
▁특징을	-5915
▁했는데	-5916
마가	-5917
▁걸친	-5918
▁재임	-5919
▁정체	-5920
군에게	-5921
▁외국인	-5922
▁심리	-5923
▁일은	-5924
▁한성	-5925
▁긍정	-5926
▁뛰고	-5927
▁사용자	-5928
▁계속해서	-5929
독립	-5930
▁검토	-5931
▁배포	-5932
▁대표로	-5933
재가	-5934
▁가깝	-5935
▁업무를	-5936
▁즈	-5937
▁고종	-5938
▁한자	-5939
는지	-5940
▁본격적으로	-5941
타로	-5942
위에서	-5943
▁독립을	-5944
▁김종	-5945
▁가치	-5946
▁노선을	-5947
▁연간	-5948
▁세부	-5949
▁힌	-5950
▁참여한	-5951
▁1932	-5952
▁히트	-5953
▁700	-5954
▁기본적으로	-5955
▁유고	-5956
▁자금	-5957
▁화장	-5958
▁가까이	-5959
▁시는	-5960
자유	-5961
본을	-5962
층에	-5963
▁다리	-5964
▁앞으로	-5965
▁아버지의	-5966
중인	-5967
▁개별	-5968
▁희망	-5969
시스코	-5970
▁뻗	-5971
로서는	-5972
▁1933	-5973
▁v	-5974
ist	-5975
▁추방	-5976
▁히로시마	-5977
당으로	-5978
강을	-5979
바일	-5980
▁미리	-5981
▁천주교	-5982
The	-5983
포로	-5984
▁개방	-5985
▁보물	-5986
▁AP	-5987
▁벼슬	-5988
▁보스	-5989
▁별도의	-5990
▁자이언	-5991
됨에	-5992
르를	-5993
신인	-5994
▁1951	-5995
▁몸을	-5996
▁보건	-5997
▁토론토	-5998
▁AT	-5999
▁나라의	-6000
▁주간	-6001
▁개념을	-6002
▁수십	-6003
친다	-6004
▁대량	-6005
▁화성	-6006
박쥐	-6007
▁레알	-6008
▁확산	-6009
▁상관	-6010
▁농구	-6011
▁동방	-6012
▁살인	-6013
▁직원	-6014
다의	-6015
▁그렇다면	-6016
▁뮌헨	-6017
▁장비	-6018
파와	-6019
하기를	-6020
▁성직	-6021
▁좋지	-6022
▁88	-6023
AT	-6024
양이	-6025
▁있으므로	-6026
너는	-6027
율이	-6028
▁스프	-6029
▁화합	-6030
▁사람들에게	-6031
▁태국	-6032
▁현지	-6033
중이다	-6034
▁소프트웨	-6035
▁첼	-6036
어에	-6037
▁재능	-6038
▁의미하는	-6039
기인	-6040
▁쾌	-6041
였는데	-6042
▁원인이	-6043
▁최우수	-6044
▁충분히	-6045
▁이적하였다	-6046
▁거느	-6047
▁성향	-6048
베리아	-6049
▁손을	-6050
▁토지	-6051
▁서서	-6052
▁단순히	-6053
▁아래에	-6054
스트는	-6055
▁교류	-6056
▁to	-6057
▁크레	-6058
▁밝은	-6059
▁영국에서	-6060
자키	-6061
▁캠퍼	-6062
문이다	-6063
▁교회의	-6064
▁칠레	-6065
▁타이거	-6066
76	-6067
페르	-6068
▁화산	-6069
▁임무를	-6070
▁프리드리히	-6071
▁이라크	-6072
▁제도를	-6073
▁크로아티아	-6074
▁크리	-6075
이상	-6076
▁경기가	-6077
크래프트	-6078
조건	-6079
▁구성하는	-6080
▁출신이다	-6081
름은	-6082
▁그녀가	-6083
▁넣어	-6084
▁권리를	-6085
▁최근에는	-6086
▁쌀	-6087
▁시사	-6088
▁되기	-6089
▁CP	-6090
▁조선민주주의인민공화국의	-6091
▁탄압	-6092
▁시드	-6093
▁장소	-6094
▁말로	-6095
▁유통	-6096
▁북아메리카	-6097
▁사전	-6098
▁포함하는	-6099
천만	-6100
▁프랭	-6101
같이	-6102
▁더블	-6103
▁상태를	-6104
▁틈	-6105
▁체육	-6106
▁현존	-6107
주의는	-6108
▁에르	-6109
차의	-6110
실로	-6111
계와	-6112
▁이온	-6113
▁강을	-6114
▁달하는	-6115
▁배경으로	-6116
▁주력	-6117
▁토착	-6118
▁게임의	-6119
-8	-6120
요시	-6121
▁스탈	-6122
▁주기	-6123
▁필수	-6124
▁이웃	-6125
▁발음	-6126
스팅	-6127
▁분기	-6128
▁우수	-6129
▁디스크	-6130
▁하느	-6131
▁우리는	-6132
▁강등	-6133
▁보이지	-6134
▁번주	-6135
▁마음을	-6136
▁곱	-6137
로에	-6138
▁1900	-6139
▁비트	-6140
▁출연했다	-6141
▁보여주는	-6142
▁개척	-6143
▁연료	-6144
▁전문가	-6145
▁에드워드	-6146
BM	-6147
▁회장	-6148
▁1924	-6149
집을	-6150
목은	-6151
키퍼	-6152
▁화이트	-6153
▁이외에도	-6154
▁앵	-6155
동물	-6156
니스탄	-6157
단에서	-6158
▁핑	-6159
거래	-6160
▁집에	-6161
▁+	-6162
▁넷	-6163
야구	-6164
▁환승	-6165
▁홋카이도	-6166
▁1928	-6167
무네	-6168
▁열매	-6169
우스는	-6170
▁지향	-6171
▁천안	-6172
▁아버지가	-6173
▁일으켰다	-6174
▁암호	-6175
▁항의	-6176
▁올스타	-6177
가락	-6178
▁이상을	-6179
-19	-6180
되거나	-6181
▁사찰	-6182
▁파워	-6183
_8	-6184
▁정부에	-6185
64	-6186
베스	-6187
피스	-6188
▁성남	-6189
▁랜	-6190
프와	-6191
▁능력	-6192
▁입장	-6193
▁미국으로	-6194
▁수소	-6195
펙트	-6196
주의자	-6197
▁서구	-6198
▁수술	-6199
▁열리는	-6200
▁철거	-6201
▁일종의	-6202
비디오	-6203
하를	-6204
▁성의	-6205
▁구글	-6206
▁내가	-6207
▁분자	-6208
▁성공했다	-6209
▁달아	-6210
▁원주민	-6211
▁특별히	-6212
▁1934	-6213
법인	-6214
▁타격	-6215
▁이용할	-6216
▁자라	-6217
▁이외의	-6218
령의	-6219
▁사회의	-6220
미니	-6221
용의	-6222
▁오페라	-6223
▁반응을	-6224
▁사우스	-6225
▁가난	-6226
▁흑인	-6227
▁개인의	-6228
판에	-6229
▁진학	-6230
▁멈	-6231
▁인천광역시	-6232
과정	-6233
용을	-6234
▁드물	-6235
▁쓰러	-6236
▁제후	-6237
▁지중	-6238
▁시작했고	-6239
▁청구	-6240
구치	-6241
하기에	-6242
▁수컷	-6243
▁거짓	-6244
▁미쓰	-6245
중이	-6246
투아	-6247
▁자원	-6248
▁자랑	-6249
운동을	-6250
▁돌아온	-6251
▁사랑을	-6252
▁큐	-6253
침을	-6254
▁줄어들	-6255
▁이어지는	-6256
▁칼리	-6257
▁강남	-6258
하라는	-6259
▁포함되었다	-6260
▁본질	-6261
▁삶을	-6262
▁역사가	-6263
▁폴리	-6264
▁하나가	-6265
.'	-6266
▁멘	-6267
현을	-6268
▁주장하는	-6269
if	-6270
공간	-6271
▁보험	-6272
▁골키퍼	-6273
▁부르기도	-6274
타마	-6275
슬링	-6276
▁대법	-6277
▁고급	-6278
▁체제	-6279
신문	-6280
작으로	-6281
▁비판을	-6282
▁진격	-6283
지면	-6284
▁공장	-6285
▁감독은	-6286
▁등장인	-6287
▁가상	-6288
▁힙합	-6289
▁원래는	-6290
▁그러므로	-6291
▁음반이다	-6292
▁마주	-6293
천의	-6294
▁대다	-6295
▁광범위	-6296
국과	-6297
▁대학교의	-6298
그램	-6299
▁연평균	-6300
42	-6301
▁개명	-6302
▁대부분을	-6303
▁SS	-6304
▁일련의	-6305
▁할아버	-6306
▁담고	-6307
▁죽음을	-6308
보호	-6309
▁추산으로	-6310
코스	-6311
▁방송을	-6312
▁낸	-6313
▁소속의	-6314
▁올해의	-6315
ess	-6316
▁집필	-6317
▁커다란	-6318
▁정식으로	-6319
크와	-6320
▁편의	-6321
▁나뉘어	-6322
▁맨체스터	-6323
서양	-6324
▁구멍	-6325
▁멀티	-6326
▁밥	-6327
법과	-6328
폴리	-6329
이게	-6330
▁강릉	-6331
▁질량	-6332
▁그리스의	-6333
▁갖게	-6334
▁지리	-6335
년경	-6336
▁원시	-6337
▁지불	-6338
▁산화	-6339
▁웨일	-6340
▁신화	-6341
나를	-6342
▁들면	-6343
▁멸종	-6344
▁대학의	-6345
리안	-6346
▁주된	-6347
▁이어서	-6348
대부	-6349
▁훌륭	-6350
▁츠	-6351
관광	-6352
하시	-6353
▁일단	-6354
▁영구	-6355
▁입은	-6356
▁홈런을	-6357
▁이벤	-6358
비트	-6359
▁신도	-6360
▁고객	-6361
▁붙어	-6362
▁유력	-6363
▁롱	-6364
▁95	-6365
▁초기에는	-6366
▁디스	-6367
▁오키	-6368
▁당나라	-6369
미르	-6370
▁노동자	-6371
▁시가	-6372
▁도쿠가와	-6373
▁전화	-6374
특별자치	-6375
로써	-6376
▁사건의	-6377
애를	-6378
힌다	-6379
▁가설	-6380
▁개량	-6381
▁뚜렷	-6382
령으로	-6383
▁여성의	-6384
해에	-6385
▁비잔	-6386
▁포트	-6387
▁사람이다	-6388
▁소집	-6389
▁입력	-6390
ct	-6391
▁차단	-6392
▁포함된다	-6393
▁석유	-6394
▁발표된	-6395
▁영화를	-6396
▁전작	-6397
▁WWE	-6398
면과	-6399
▁피터	-6400
▁위치에	-6401
호선의	-6402
▁오는	-6403
▁혼자	-6404
▁보스턴	-6405
▁매주	-6406
▁부동	-6407
▁다이묘	-6408
▁덩	-6409
슨이	-6410
▁마감	-6411
▁보편	-6412
▁남녀	-6413
▁화가	-6414
▁재생	-6415
▁끝으로	-6416
공신	-6417
▁백제	-6418
▁프로그래밍	-6419
▁위상	-6420
41	-6421
▁세계대전	-6422
함은	-6423
ight	-6424
▁덜	-6425
▁영토를	-6426
▁시조	-6427
▁구성된다	-6428
▁병원	-6429
▁란	-6430
▁속도	-6431
▁리처드	-6432
리언	-6433
▁콜롬	-6434
식에서	-6435
▁관객	-6436
▁백성	-6437
하에서	-6438
니와	-6439
▁초청	-6440
무장	-6441
임은	-6442
▁남극	-6443
년까지는	-6444
근혜	-6445
▁무대	-6446
▁생기	-6447
▁하와	-6448
▁후에도	-6449
▁강요	-6450
▁적극적으로	-6451
▁99	-6452
절을	-6453
▁41	-6454
ine	-6455
49	-6456
칭은	-6457
▁물려	-6458
보다도	-6459
▁탓	-6460
▁경향이	-6461
▁보냈	-6462
▁오다	-6463
▁스트리	-6464
▁중성	-6465
배를	-6466
희는	-6467
▁국정	-6468
당에서	-6469
▁까지	-6470
▁코치	-6471
▁열었다	-6472
데르	-6473
행이	-6474
all	-6475
▁신의	-6476
43	-6477
▁놓여	-6478
▁변호사	-6479
편의	-6480
체이다	-6481
▁맺고	-6482
▁매장	-6483
▁북미	-6484
▁되기도	-6485
▁후퇴	-6486
▁살아남	-6487
▁후보가	-6488
심이	-6489
▁섬에	-6490
▁170	-6491
▁웃	-6492
살이	-6493
▁가마	-6494
▁성경	-6495
결승	-6496
모의	-6497
▁그려져	-6498
▁인기가	-6499
EC	-6500
가능	-6501
바의	-6502
▁68	-6503
▁갈색	-6504
▁하던	-6505
▁정확히	-6506
▁현상	-6507
▁부르고	-6508
▁불가리아	-6509
▁요코하마	-6510
방향	-6511
▁혈액	-6512
▁1931	-6513
▁상주	-6514
▁이념	-6515
▁일상	-6516
▁교차	-6517
자이자	-6518
▁1921	-6519
▁윤치	-6520
▁입법	-6521
▁동일본	-6522
등급	-6523
▁수를	-6524
▁영향으로	-6525
▁사막	-6526
▁발표되었다	-6527
통합	-6528
▁미국에	-6529
▁지칭	-6530
▁막기	-6531
▁인상	-6532
▁x	-6533
연대	-6534
보로	-6535
▁생태	-6536
경기에서	-6537
▁85	-6538
▁검색	-6539
▁실천	-6540
▁집안	-6541
▁모바일	-6542
▁대원	-6543
▁발전을	-6544
▁1925	-6545
▁비공	-6546
▁복음	-6547
▁사가	-6548
▁이익	-6549
▁명으로	-6550
곡은	-6551
▁목숨	-6552
▁많았다	-6553
▁일본은	-6554
담을	-6555
▁싱어	-6556
▁1923	-6557
▁반대하는	-6558
권과	-6559
▁데이터를	-6560
▁순환	-6561
▁1929	-6562
조와	-6563
▁정통	-6564
▁어두	-6565
▁드라마이다	-6566
▁DVD	-6567
민은	-6568
▁사도	-6569
▁주변의	-6570
결을	-6571
▁발휘	-6572
클리	-6573
▁인도의	-6574
▁대화	-6575
▁수호	-6576
ove	-6577
▁집을	-6578
오로	-6579
65	-6580
에서부터	-6581
먼트	-6582
▁허락	-6583
▁안내	-6584
▁군사를	-6585
▁상하	-6586
대문	-6587
시장	-6588
아르	-6589
▁기도	-6590
▁글로벌	-6591
▁명칭으로	-6592
기이다	-6593
한다면	-6594
▁강하게	-6595
▁바르셀	-6596
▁보이고	-6597
비히	-6598
▁부속	-6599
ne	-6600
래곤	-6601
▁스티븐	-6602
▁대대	-6603
▁이론을	-6604
연의	-6605
왕후	-6606
가시	-6607
▁새끼	-6608
▁이끌어	-6609
▁전형적인	-6610
내의	-6611
▁가속	-6612
▁적도	-6613
▁건물은	-6614
ab	-6615
▁결의	-6616
▁그만	-6617
파이	-6618
체인	-6619
▁철저	-6620
▁꼬리	-6621
▁메모리	-6622
44	-6623
▁청주	-6624
▁구성원	-6625
▁클라	-6626
▁주목을	-6627
▁나고야	-6628
재는	-6629
청의	-6630
테이	-6631
▁앤드	-6632
▁상호작용	-6633
율은	-6634
치기	-6635
▁본다	-6636
▁소화	-6637
▁첫째	-6638
▁대변	-6639
▁짝	-6640
▁말해	-6641
▁행위를	-6642
▁축소	-6643
▁의정부	-6644
라면	-6645
▁핫	-6646
구이다	-6647
▁상태가	-6648
러가	-6649
▁논리	-6650
▁식품	-6651
▁처음에	-6652
▁텐	-6653
타가	-6654
▁개장	-6655
▁공주	-6656
▁메달	-6657
▁혼인	-6658
▁남아메리카	-6659
튜브	-6660
▁예산	-6661
▁거리에	-6662
다시	-6663
비와	-6664
▁기상	-6665
▁블록	-6666
시대에	-6667
▁사건에	-6668
▁바둑	-6669
▁나타난	-6670
▁작품의	-6671
▁농촌	-6672
▁아오	-6673
당하고	-6674
▁감시	-6675
졌으나	-6676
▁루마니아	-6677
▁스웨덴의	-6678
▁권리	-6679
▁오카	-6680
▁닮	-6681
았는데	-6682
▁부드	-6683
▁가치를	-6684
▁루이스	-6685
▁참가하였다	-6686
▁죽자	-6687
▁문재	-6688
▁잡고	-6689
▁땅을	-6690
▁올라가	-6691
▁단어	-6692
았지만	-6693
▁기반을	-6694
토를	-6695
▁알레	-6696
▁데뷔했다	-6697
문과	-6698
▁가끔	-6699
▁사람들	-6700
▁현상을	-6701
▁군대	-6702
▁연안	-6703
▁주재	-6704
▁또다른	-6705
▁되었는데	-6706
▁뮤직비디오	-6707
▁HD	-6708
▁허가	-6709
석으로	-6710
관계를	-6711
▁와서	-6712
▁공개되었다	-6713
▁엘리자	-6714
오고	-6715
영이	-6716
▁상황에	-6717
▁회사의	-6718
odice	-6719
프란	-6720
▁교향	-6721
▁소득	-6722
▁팔레	-6723
즈니	-6724
▁승부	-6725
▁용인	-6726
▁종이	-6727
▁리이다	-6728
▁모습이	-6729
▁맺었다	-6730
성에서	-6731
▁아동	-6732
▁박근혜	-6733
▁발매한	-6734
▁유나이티드	-6735
▁산하	-6736
▁늑	-6737
▁43	-6738
오가	-6739
▁하인	-6740
현이	-6741
▁노무	-6742
▁착용	-6743
▁민중	-6744
▁일원	-6745
▁자가	-6746
99	-6747
나게	-6748
▁관해	-6749
▁작사	-6750
▁57	-6751
▁스크린	-6752
▁전체를	-6753
▁감옥	-6754
▁토벌	-6755
차전	-6756
▁웹사이트	-6757
인가	-6758
▁불렀	-6759
실에서	-6760
▁콘스탄티노	-6761
나라는	-6762
▁도시는	-6763
▁영향력을	-6764
▁우리가	-6765
▁구원	-6766
▁의견을	-6767
이면	-6768
제도	-6769
▁이재	-6770
문으로	-6771
족을	-6772
베르트	-6773
대원	-6774
▁뜻이다	-6775
계열	-6776
됐고	-6777
미술	-6778
정도	-6779
▁압도	-6780
▁힘들	-6781
하면서도	-6782
▁에너지를	-6783
말로	-6784
▁대동	-6785
▁약탈	-6786
▁엑스	-6787
▁1922	-6788
▁문신	-6789
▁세력이	-6790
대신	-6791
령은	-6792
▁성과	-6793
▁세계를	-6794
▁부상으로	-6795
▁단선	-6796
▁도쿄도	-6797
위원회가	-6798
위원회는	-6799
갔고	-6800
▁않기	-6801
까지도	-6802
▁삼았다	-6803
슬로	-6804
▁성격을	-6805
▁본선에	-6806
물과	-6807
래의	-6808
▁이은	-6809
▁톱	-6810
▁파크	-6811
드리아	-6812
▁심지어	-6813
▁유전자	-6814
▁입사	-6815
▁세워진	-6816
▁본명은	-6817
▁전동차	-6818
▁가고	-6819
▁경남	-6820
▁모토	-6821
▁인구의	-6822
▁비틀	-6823
▁정도이다	-6824
▁동반	-6825
▁선호	-6826
▁자매	-6827
▁음반은	-6828
▁소리	-6829
▁중에서도	-6830
ive	-6831
▁북극	-6832
▁지었다	-6833
200	-6834
▁손에	-6835
▁받으며	-6836
▁전투는	-6837
▁프라이	-6838
레인	-6839
▁삽입	-6840
지니아	-6841
마뱀	-6842
적이며	-6843
▁앨범을	-6844
▁서명	-6845
▁관계에	-6846
▁수준의	-6847
▁리그에서	-6848
▁극복	-6849
▁증언	-6850
▁해협	-6851
▁랩	-6852
브로	-6853
▁140	-6854
▁인물로	-6855
본은	-6856
되던	-6857
▁98	-6858
▁무릎	-6859
라이터	-6860
▁역의	-6861
▁협회	-6862
주의와	-6863
▁세리에	-6864
▁부탁	-6865
▁교수로	-6866
▁아무런	-6867
식이다	-6868
였다고	-6869
▁위대한	-6870
ard	-6871
▁공기	-6872
▁호흡	-6873
받침	-6874
▁운송	-6875
▁설립한	-6876
▁OS	-6877
▁코파	-6878
▁관계는	-6879
디움	-6880
▁《》	-6881
본부	-6882
▁새벽	-6883
▁비롯해	-6884
▁방언	-6885
▁고안	-6886
▁단행	-6887
스트라	-6888
▁곳은	-6889
▁폭력	-6890
▁방송된	-6891
고등학교는	-6892
ill	-6893
▁평론	-6894
▁오버	-6895
▁커버	-6896
분은	-6897
판의	-6898
▁운동에	-6899
▁풋	-6900
▁곤충	-6901
▁거리를	-6902
▁마드리드	-6903
▁퀘	-6904
미아	-6905
사기	-6906
▁명시	-6907
▁1912	-6908
▁했	-6909
로지	-6910
▁용어는	-6911
▁codice	-6912
▁전한	-6913
▁원하는	-6914
▁이었다	-6915
▁황제의	-6916
▁인터뷰에서	-6917
▁일으킨	-6918
▁대해서도	-6919
▁플로리다	-6920
▁예전	-6921
▁상의	-6922
산에서	-6923
즈와	-6924
▁만들기	-6925
▁꺼	-6926
▁않았지만	-6927
턴은	-6928
▁규슈	-6929
▁모양으로	-6930
토가	-6931
병으로	-6932
▁주변에	-6933
청년	-6934
▁든	-6935
▁정수	-6936
▁정치인	-6937
▁쏘	-6938
▁필라	-6939
▁나이에	-6940
▁무산	-6941
▁선조	-6942
▁중시	-6943
공원	-6944
마저	-6945
밀한	-6946
▁66	-6947
▁근육	-6948
▁며	-6949
쳤고	-6950
▁남겨	-6951
▁멜로	-6952
▁Th	-6953
▁로렌	-6954
▁몸무	-6955
▁포유	-6956
하였을	-6957
▁그럼	-6958
▁자신은	-6959
보험	-6960
▁예로	-6961
▁재료	-6962
▁You	-6963
▁없지만	-6964
▁1907	-6965
ue	-6966
▁카라	-6967
차에	-6968
▁모터	-6969
▁세월	-6970
도니아	-6971
폴리스	-6972
▁민법	-6973
▁끈	-6974
▁있다가	-6975
주년	-6976
▁일본인	-6977
▁지역이	-6978
▁사다	-6979
▁실내	-6980
▁상태에	-6981
-10	-6982
▁억제	-6983
▁행정구역이다	-6984
고자	-6985
▁원년	-6986
세기의	-6987
▁사람으로	-6988
훼손	-6989
▁싱가포르	-6990
▁센트	-6991
▁영혼	-6992
▁의미가	-6993
...	-6994
▁섬식	-6995
▁성과를	-6996
▁1926	-6997
ell	-6998
▁그라	-6999
류에	-7000
▁대칭	-7001
▁등도	-7002
▁적응	-7003
▁해설	-7004
란색	-7005
▁자체가	-7006
▁차지하였다	-7007
등에	-7008
▁신고	-7009
환경	-7010
▁몸길	-7011
ub	-7012
▁재산	-7013
▁이어져	-7014
주군	-7015
▁담은	-7016
건의	-7017
▁소스	-7018
▁크루	-7019
학과를	-7020
▁소규모	-7021
▁압축	-7022
▁콜롬비아	-7023
슬라	-7024
▁수백	-7025
▁좁은	-7026
마에	-7027
안전	-7028
하겠다고	-7029
▁겨우	-7030
▁그녀를	-7031
▁보이며	-7032
▁소요	-7033
▁골드	-7034
▁소형	-7035
▁우에	-7036
▁크라	-7037
시스템	-7038
종합	-7039
▁수직	-7040
자였던	-7041
▁포함된	-7042
▁1908	-7043
▁1927	-7044
▁특허	-7045
▁기능이	-7046
▁준결승	-7047
카르	-7048
▁175	-7049
▁공간을	-7050
▁대회는	-7051
▁유대인	-7052
노의	-7053
▁이날	-7054
▁당사	-7055
▁대선	-7056
▁꾸준히	-7057
▁없었고	-7058
▁맞추	-7059
▁접속	-7060
▁국가가	-7061
▁다루는	-7062
방에	-7063
▁넘겨	-7064
▁유용	-7065
▁리그의	-7066
점과	-7067
▁아래의	-7068
▁역사는	-7069
▁마틴	-7070
▁종로	-7071
북도의	-7072
▁시를	-7073
▁포스트	-7074
▁1917	-7075
프라	-7076
▁불리며	-7077
▁있어야	-7078
률을	-7079
미사	-7080
▁망원	-7081
▁책은	-7082
▁사로	-7083
▁수밖에	-7084
해는	-7085
류로	-7086
▁크기가	-7087
용은	-7088
▁맞춰	-7089
▁1905	-7090
▁영역	-7091
이라면	-7092
▁도중에	-7093
▁먹는다	-7094
▁기하	-7095
▁전술	-7096
▁이미지	-7097
▁곧바로	-7098
리티	-7099
보기	-7100
환은	-7101
▁데려	-7102
▁크기는	-7103
건은	-7104
교가	-7105
▁쇠퇴	-7106
▁이즈	-7107
▁지방에	-7108
▁아메리칸	-7109
▁차지한다	-7110
▁지원하는	-7111
▁닉	-7112
국인	-7113
▁유발	-7114
▁클리	-7115
▁뼈	-7116
▁수감	-7117
모델	-7118
▁감사	-7119
▁위키	-7120
ID	-7121
▁교사	-7122
▁창당	-7123
▁실제로는	-7124
▁외계	-7125
프가니스탄	-7126
▁IC	-7127
해지고	-7128
▁이어졌다	-7129
▁별로	-7130
▁코믹	-7131
신과	-7132
▁지나지	-7133
▁미국인	-7134
▁싫	-7135
▁레지	-7136
나마	-7137
▁구로	-7138
▁일곱	-7139
드라마	-7140
▁아들이다	-7141
▁아울	-7142
에게도	-7143
95	-7144
▁주요한	-7145
▁경유	-7146
▁알렉산더	-7147
▁창간	-7148
▁기본적인	-7149
▁JR	-7150
▁발명	-7151
▁다큐	-7152
▁들여	-7153
▁졸업한	-7154
노스	-7155
▁영원	-7156
되었다는	-7157
▁병력을	-7158
▁이용하는	-7159
▁공산당	-7160
▁돌아왔다	-7161
▁전해진다	-7162
▁살았다	-7163
▁수록되어	-7164
▁이행	-7165
▁명성을	-7166
▁사이를	-7167
▁하다가	-7168
지방법원	-7169
령에	-7170
▁그들	-7171
▁덕분에	-7172
▁마치고	-7173
▁적어도	-7174
▁독재	-7175
든지	-7176
우고	-7177
▁지대	-7178
▁옮겼다	-7179
▁이하의	-7180
스피	-7181
▁거둔	-7182
▁베어	-7183
▁못하게	-7184
▁얻게	-7185
▁호남	-7186
▁하사	-7187
▁중국에서	-7188
▁반면에	-7189
▁소리를	-7190
▁탑승	-7191
▁결승전에서	-7192
▁랑	-7193
▁원인	-7194
▁카자	-7195
▁순서	-7196
▁그레고	-7197
▁이르기까지	-7198
▁잠재	-7199
달러	-7200
▁내는	-7201
바키아	-7202
▁르네	-7203
▁봉해졌다	-7204
류와	-7205
▁메탈	-7206
▁세우고	-7207
교도	-7208
생활을	-7209
▁상황이	-7210
이었는데	-7211
▁폐지되었다	-7212
▁배급	-7213
기지	-7214
▁몬테	-7215
▁살펴	-7216
▁오이	-7217
▁촉진	-7218
자들과	-7219
▁도시를	-7220
자나	-7221
우스의	-7222
▁바이러	-7223
금은	-7224
▁마그	-7225
▁오늘날의	-7226
▁부처	-7227
▁찬성	-7228
나고	-7229
청이	-7230
▁1/	-7231
▁군은	-7232
졌는데	-7233
▁시절에	-7234
▁콘서트	-7235
▁모험	-7236
▁접하고	-7237
▁정권을	-7238
▁셔	-7239
률이	-7240
발전	-7241
▁Al	-7242
▁옛날	-7243
▁판타	-7244
소수	-7245
▁구사	-7246
▁권한을	-7247
▁곳을	-7248
▁부유	-7249
▁휴대	-7250
▁걷	-7251
치며	-7252
▁배열	-7253
▁체험	-7254
▁밀라노	-7255
▁타이틀을	-7256
▁강수	-7257
▁죽고	-7258
▁말라	-7259
▁한반도	-7260
▁레벨	-7261
▁빌딩	-7262
▁삼아	-7263
▁장례	-7264
음은	-7265
▁급격	-7266
▁석사	-7267
▁사이트	-7268
▁콘텐츠	-7269
곡이	-7270
토미	-7271
▁MS	-7272
▁사촌	-7273
▁없었던	-7274
▁기부	-7275
졌던	-7276
MA	-7277
원숭	-7278
티움	-7279
▁거대	-7280
▁석방	-7281
▁예외	-7282
▁유적	-7283
▁라이벌	-7284
호쿠	-7285
졌지만	-7286
보이	-7287
▁양산	-7288
▁코너	-7289
▁게르	-7290
▁심장	-7291
▁일어난다	-7292
버드	-7293
▁되찾	-7294
▁붙잡	-7295
▁셋째	-7296
▁되었다고	-7297
▁차지하는	-7298
베리	-7299
훈련	-7300
▁오케	-7301
▁읍	-7302
▁비정	-7303
▁투어	-7304
78	-7305
▁변화가	-7306
▁서울시	-7307
▁작전을	-7308
▁현대의	-7309
ers	-7310
▁기용	-7311
▁실수	-7312
▁방법이	-7313
고에	-7314
▁행복	-7315
▁결심	-7316
▁성질	-7317
▁아티스트	-7318
지마	-7319
치오	-7320
▁돌파	-7321
▁동굴	-7322
▁아프가니스탄	-7323
▁레이블	-7324
전자	-7325
▁무리	-7326
▁추대	-7327
▁현의	-7328
실에	-7329
▁놀라	-7330
▁영양	-7331
▁국경을	-7332
▁고등학교이다	-7333
피를	-7334
▁무인	-7335
▁발레	-7336
▁대학에서	-7337
습을	-7338
▁공룡	-7339
▁역이	-7340
하라고	-7341
▁바람에	-7342
▁서일본	-7343
르와	-7344
형과	-7345
주의에	-7346
▁시호는	-7347
▁모습으로	-7348
66	-7349
회와	-7350
▁과도	-7351
▁주거	-7352
조판서	-7353
▁영국과	-7354
▁토너	-7355
▁레이다	-7356
▁지내고	-7357
▁도메	-7358
▁중지	-7359
▁싱어송	-7360
▁브라질의	-7361
▁유아	-7362
타와	-7363
▁감각	-7364
민족행위	-7365
▁발생한다	-7366
▁빅토리아	-7367
앨범	-7368
▁유입	-7369
▁도움이	-7370
삼국	-7371
편을	-7372
▁현급	-7373
년만에	-7374
▁다음으로	-7375
▁획득하였다	-7376
▁주제	-7377
▁콜로	-7378
▁띤	-7379
▁가시	-7380
▁물이	-7381
▁수반	-7382
▁명단에	-7383
▁명칭이	-7384
회로	-7385
지기도	-7386
▁베네치아	-7387
▁운항	-7388
▁요미	-7389
▁결과로	-7390
▁사제	-7391
▁전북	-7392
▁흰색	-7393
▁고고	-7394
▁필립	-7395
▁의미로	-7396
▁대단	-7397
▁삭제	-7398
슬라비아	-7399
▁대회이다	-7400
장애	-7401
▁조기	-7402
▁크기의	-7403
▁MV	-7404
▁의거	-7405
▁밖으로	-7406
리브	-7407
터와	-7408
보의	-7409
▁호주	-7410
▁정부를	-7411
▁핸	-7412
▁공무	-7413
▁거친	-7414
▁시달	-7415
▁BBC	-7416
97	-7417
▁뚫	-7418
나카	-7419
졌을	-7420
▁의도	-7421
▁프랑스는	-7422
너스	-7423
▁등장한	-7424
▁약간의	-7425
▁매각	-7426
▁서쪽으로는	-7427
▁심사	-7428
▁참모	-7429
▁총선에서	-7430
린이	-7431
▁방위	-7432
▁색깔	-7433
▁않았던	-7434
▁걸려	-7435
보가	-7436
▁말은	-7437
▁지정되어	-7438
▁첩	-7439
▁목포	-7440
▁풍부한	-7441
▁딴	-7442
▁파울	-7443
투표	-7444
▁무관	-7445
▁계기가	-7446
▁했다고	-7447
▁남쪽으로는	-7448
준은	-7449
▁서북	-7450
▁사용하지	-7451
▁대구광역시	-7452
실한	-7453
나라를	-7454
▁생각을	-7455
▁흙	-7456
▁않았으며	-7457
▁획득했다	-7458
제르	-7459
▁천체	-7460
▁가야	-7461
▁올린	-7462
▁파키스탄	-7463
▁이루어진다	-7464
금이	-7465
▁비로	-7466
▁파생	-7467
▁졸업했다	-7468
▁당선되었다	-7469
▁넥	-7470
경으로	-7471
▁때문이었다	-7472
▁전체적으로	-7473
▁동영	-7474
▁우라	-7475
ud	-7476
대상	-7477
보면	-7478
▁갈등	-7479
▁동쪽으로는	-7480
IN	-7481
▁전남	-7482
▁안양	-7483
▁참고	-7484
▁KT	-7485
속으로	-7486
▁보르	-7487
▁서기	-7488
▁타입	-7489
▁250	-7490
음의	-7491
▁바이러스	-7492
_10	-7493
머리	-7494
족과	-7495
▁알리	-7496
권으로	-7497
들인	-7498
심의	-7499
▁1906	-7500
▁설치되었다	-7501
▁펑	-7502
브를	-7503
▁테마	-7504
방이	-7505
▁퍼져	-7506
▁부분에	-7507
▁모임	-7508
▁세계에	-7509
▁≪	-7510
브레	-7511
▁제공하고	-7512
▁싱어송라이터	-7513
더스	-7514
수도	-7515
▁한국인	-7516
▁대한제국	-7517
▁이명박	-7518
▁AC	-7519
▁규모가	-7520
▁필요로	-7521
▁뱀	-7522
성도	-7523
▁다룬	-7524
▁것이고	-7525
파에	-7526
▁Re	-7527
▁준우승	-7528
부사	-7529
▁두려워	-7530
▁지원한다	-7531
▁감정	-7532
▁폭탄	-7533
▁안토니	-7534
▁이곳에	-7535
데스리가	-7536
아웃	-7537
▁경전	-7538
▁공정	-7539
▁매니	-7540
▁성은	-7541
▁스톤	-7542
▁패러	-7543
▁시간에	-7544
▁사형	-7545
▁크리스티	-7546
▁고통	-7547
▁납치	-7548
▁스승	-7549
▁쓴다	-7550
▁전의	-7551
▁개발을	-7552
▁오리지	-7553
구조	-7554
▁박쥐	-7555
▁지표	-7556
화하는	-7557
▁종교적	-7558
보통	-7559
▁우익	-7560
▁입증	-7561
▁문화재자료	-7562
SP	-7563
▁빵	-7564
전한	-7565
▁음성	-7566
▁과거에	-7567
▁내용의	-7568
▁차트에서	-7569
▁독점	-7570
▁주와	-7571
▁뒤로	-7572
기능	-7573
오와	-7574
▁최상	-7575
▁학사	-7576
▁말하며	-7577
▁집에서	-7578
▁후기의	-7579
유는	-7580
재의	-7581
▁김해	-7582
▁방향을	-7583
▁유럽에서	-7584
곡의	-7585
팀이	-7586
현에	-7587
▁보기	-7588
스에게	-7589
판으로	-7590
란다	-7591
플로	-7592
▁효과가	-7593
▁시대에는	-7594
OR	-7595
론과	-7596
▁EP	-7597
▁법적	-7598
▁되었으나	-7599
▁옵	-7600
긴다	-7601
▁타원	-7602
▁Me	-7603
▁들었다	-7604
▁공동으로	-7605
68	-7606
림을	-7607
연은	-7608
▁고리	-7609
▁먹는	-7610
▁입대	-7611
트랙	-7612
▁시게	-7613
▁뿐이다	-7614
▁갱	-7615
▁광역	-7616
▁110	-7617
▁노선이	-7618
▁동성애	-7619
리케이션	-7620
▁세계적인	-7621
▁순수	-7622
▁이세	-7623
▁전승	-7624
우라	-7625
▁만난	-7626
▁당해	-7627
▁모래	-7628
년으로	-7629
스부르크	-7630
▁북쪽으로는	-7631
▁낱	-7632
▁계층	-7633
▁공원	-7634
▁자세	-7635
▁예방	-7636
▁포켓몬	-7637
▁레인	-7638
▁상영	-7639
▁심한	-7640
트롤	-7641
▁서방	-7642
▁입었다	-7643
개국	-7644
▁51	-7645
▁연락	-7646
▁게시	-7647
▁실업	-7648
▁그리스도	-7649
▁화폐	-7650
직에서	-7651
▁주도는	-7652
▁습격	-7653
▁165	-7654
▁모델로	-7655
▁아르메	-7656
▁칙	-7657
▁못한다	-7658
▁자료를	-7659
▁간섭	-7660
▁다큐멘	-7661
중은	-7662
▁동시	-7663
▁선두	-7664
AM	-7665
▁중립	-7666
▁초상	-7667
프란시스코	-7668
각형	-7669
▁동서	-7670
▁아직도	-7671
▁특성을	-7672
▁하나님	-7673
▁밀접	-7674
면서도	-7675
▁선거에	-7676
리코	-7677
연한	-7678
▁추락	-7679
▁탐험	-7680
▁사양	-7681
로미터	-7682
▁흐르는	-7683
▁클라우	-7684
▁스마트폰	-7685
▁구간은	-7686
법인이다	-7687
루미	-7688
▁지바	-7689
▁두드	-7690
이라며	-7691
▁아니고	-7692
끼리	-7693
▁가능성을	-7694
ain	-7695
▁들어간	-7696
뱅크	-7697
▁게임은	-7698
▁이곳에서	-7699
▁마법	-7700
▁선형	-7701
▁유닛	-7702
성이다	-7703
펙트럼	-7704
▁딱	-7705
▁람	-7706
▁금강	-7707
▁눈을	-7708
▁발족	-7709
▁동맹을	-7710
▁문화를	-7711
▁유고슬라비아	-7712
▁해병	-7713
▁계획은	-7714
▁작품이	-7715
▁적절한	-7716
총리	-7717
곡으로	-7718
▁들어와	-7719
급의	-7720
▁관심이	-7721
니에	-7722
▁소위	-7723
▁130	-7724
▁존재를	-7725
문관	-7726
▁모노	-7727
▁문화의	-7728
▁일본이	-7729
▁레닌	-7730
▁분산	-7731
된다는	-7732
▁모양을	-7733
▁사진을	-7734
▁우수한	-7735
집합	-7736
▁동경	-7737
▁못했고	-7738
▁동아시아	-7739
▁냈다	-7740
▁간에	-7741
▁클로	-7742
ip	-7743
▁고시	-7744
▁신분	-7745
▁전두	-7746
석과	-7747
하가	-7748
▁78	-7749
▁닌텐	-7750
▁초래	-7751
▁향년	-7752
데이트	-7753
▁벌였다	-7754
건설	-7755
▁다녔	-7756
대사	-7757
지구	-7758
▁추가되었다	-7759
▁SF	-7760
▁활동에	-7761
▁굽	-7762
▁거기	-7763
▁참가하여	-7764
간을	-7765
작을	-7766
▁유인	-7767
ity	-7768
▁이야기가	-7769
병이	-7770
▁계획이	-7771
▁때마다	-7772
▁그럼에도	-7773
레나	-7774
▁보살	-7775
▁측은	-7776
바다	-7777
▁산악	-7778
▁하노	-7779
▁황태	-7780
석에	-7781
액을	-7782
루살	-7783
▁어릴	-7784
개는	-7785
비시	-7786
환의	-7787
년은	-7788
▁중동	-7789
▁젠	-7790
카드	-7791
▁합동	-7792
▁미국이	-7793
▁아울러	-7794
▁자유를	-7795
▁시스템은	-7796
초의	-7797
▁대회를	-7798
▁카메라	-7799
▁공식적인	-7800
▁지역에서는	-7801
▁빗	-7802
▁압박	-7803
▁점은	-7804
▁본토	-7805
▁사과	-7806
▁전임	-7807
▁앨범은	-7808
▁쿼	-7809
으려	-7810
▁막아	-7811
▁타워	-7812
▁코로나	-7813
▁기록하고	-7814
▁리눅	-7815
자였다	-7816
페이지	-7817
▁보인	-7818
▁성균	-7819
되었기	-7820
72	-7821
그래	-7822
나르	-7823
▁고가	-7824
▁빨리	-7825
마루	-7826
▁옆에	-7827
▁적을	-7828
▁카페	-7829
▁별도로	-7830
▁엔진을	-7831
▁나라를	-7832
▁54	-7833
▁영광	-7834
▁익스	-7835
니스트	-7836
공이	-7837
▁막을	-7838
▁전향	-7839
▁관하여	-7840
▁긴급	-7841
▁수익	-7842
▁확인할	-7843
률은	-7844
루살렘	-7845
체에서	-7846
본이	-7847
비행	-7848
반의	-7849
▁전망	-7850
▁타율	-7851
▁데리고	-7852
▁버리고	-7853
▁아나운	-7854
▁활동이	-7855
목의	-7856
▁잃고	-7857
장군	-7858
▁폭격	-7859
▁52	-7860
▁점성	-7861
▁구간이	-7862
광역시의	-7863
연이	-7864
▁목숨을	-7865
▁샌프란시스코	-7866
▁아틀	-7867
▁활동한	-7868
변을	-7869
보병	-7870
▁모듈	-7871
▁변신	-7872
▁블라디	-7873
▁섹	-7874
우에	-7875
히고	-7876
▁직무	-7877
94	-7878
▁고립	-7879
▁이외에	-7880
▁소속되어	-7881
▁오리지널	-7882
▁활약하고	-7883
반을	-7884
▁가해	-7885
▁이정	-7886
고한	-7887
애나	-7888
▁동지	-7889
▁벗어	-7890
▁인근에	-7891
▁학교를	-7892
스테이션	-7893
▁일환으로	-7894
▁좌익	-7895
▁코스	-7896
▁은퇴한	-7897
▁인간이	-7898
▁한국에서는	-7899
네는	-7900
업이	-7901
▁회색	-7902
민이	-7903
럼비아	-7904
▁유지하고	-7905
▁빛을	-7906
미와	-7907
티의	-7908
▁테크	-7909
▁경계를	-7910
▁발렌	-7911
▁혁신	-7912
▁분야의	-7913
▁중심지	-7914
▁내륙	-7915
▁인류	-7916
▁관광객	-7917
▁깊이	-7918
▁유성	-7919
▁아마추어	-7920
편이	-7921
▁적색	-7922
▁간단한	-7923
▁빨간	-7924
▁열차는	-7925
▁스펙트럼	-7926
PS	-7927
▁탱	-7928
악의	-7929
▁군을	-7930
▁장갑	-7931
▁낳았다	-7932
▁오디션	-7933
▁펄	-7934
▁시모	-7935
▁아니었다	-7936
▁네덜란드의	-7937
▁형성된	-7938
▁지역이다	-7939
천을	-7940
▁남해	-7941
▁미분	-7942
함으로	-7943
▁조약을	-7944
▁최근에	-7945
▁론	-7946
유로	-7947
▁있으면	-7948
▁동치	-7949
▁테오	-7950
▁등이다	-7951
▁과학자	-7952
ant	-7953
▁내지	-7954
▁결과가	-7955
▁순위	-7956
▁오염	-7957
▁경험을	-7958
▁아들을	-7959
▁스타디움	-7960
67	-7961
▁이승만	-7962
▁파트너	-7963
▁일본에서는	-7964
▁선제	-7965
▁문화적	-7966
▁보좌	-7967
▁일대	-7968
Pa	-7969
아를	-7970
▁가득	-7971
▁겸임	-7972
자이너	-7973
▁당했다	-7974
▁남양	-7975
▁피난	-7976
▁그동안	-7977
니를	-7978
말을	-7979
▁설이	-7980
▁웨이	-7981
62	-7982
ang	-7983
▁성벽	-7984
▁우루	-7985
▁이수	-7986
▁결과는	-7987
▁우리나라	-7988
청을	-7989
▁원자력	-7990
▁관련하여	-7991
시고	-7992
▁수천	-7993
▁없기	-7994
기관이다	-7995
▁본선의	-7996
▁주장이	-7997
피는	-7998
▁목록은	-7999
▁데뷔전을	-8000
▁싱글이다	-8001
▁된다는	-8002
▁인물이다	-8003
▁딜	-8004
▁대지	-8005
스톤	-8006
작가	-8007
음에	-8008
출을	-8009
▁성공적으로	-8010
▁많고	-8011
▁독자적인	-8012
▁반사	-8013
다니	-8014
▁꺾고	-8015
사이드	-8016
▁NHK	-8017
▁쪽으로	-8018
▁항구	-8019
▁가공	-8020
▁참조	-8021
▁발효	-8022
▁애국	-8023
▁없애	-8024
▁영화로	-8025
과로	-8026
의에	-8027
티에	-8028
▁버지니아	-8029
▁불리기도	-8030
온의	-8031
▁운반	-8032
▁케이블	-8033
▁흩	-8034
▁이종	-8035
카미	-8036
61	-8037
▁면역	-8038
▁야스	-8039
ew	-8040
▁쏟	-8041
▁근로	-8042
▁아케	-8043
▁지질	-8044
▁상태이다	-8045
▁요구하는	-8046
등한	-8047
▁일로	-8048
▁위기에	-8049
▁남한	-8050
▁호환	-8051
▁조선총독부	-8052
▁원래의	-8053
▁차이를	-8054
▁곳곳	-8055
▁담당하는	-8056
▁결과적으로	-8057
시켰고	-8058
▁졸업하였다	-8059
OM	-8060
유산	-8061
▁연계	-8062
▁국토	-8063
주인	-8064
들과의	-8065
▁페이스	-8066
ect	-8067
▁랭킹	-8068
▁모로	-8069
▁출현	-8070
▁스프링	-8071
▁당의	-8072
▁장편	-8073
▁툴	-8074
된다고	-8075
▁자리에서	-8076
▁활약하였다	-8077
용이	-8078
▁뒤인	-8079
브는	-8080
▁돌아오	-8081
▁아이스	-8082
▁운동의	-8083
▁예루살렘	-8084
▁안드로이드	-8085
왔고	-8086
▁사항	-8087
▁서독	-8088
▁고교	-8089
우옌	-8090
▁값을	-8091
▁친선	-8092
▁피렌	-8093
▁계열의	-8094
▁개최되었다	-8095
공학	-8096
▁승차	-8097
▁유물	-8098
▁홀로	-8099
▁첫번째	-8100
▁임신	-8101
AN	-8102
마자	-8103
▁아웃	-8104
▁발전에	-8105
▁사령관	-8106
▁지어진	-8107
▁업데이트	-8108
▁청와	-8109
안으로	-8110
IC	-8111
션을	-8112
▁리듬	-8113
▁마카	-8114
▁플레	-8115
릭스	-8116
먼은	-8117
▁끝났다	-8118
▁현존하는	-8119
▁애플리케이션	-8120
▁휩	-8121
▁열어	-8122
▁인증	-8123
74	-8124
▁천황의	-8125
실록	-8126
▁극단	-8127
▁못해	-8128
▁탄소	-8129
▁중이던	-8130
발의	-8131
▁이복	-8132
▁정류	-8133
▁청동	-8134
▁추적	-8135
레이드	-8136
▁지배를	-8137
▁훈련을	-8138
▁나들목	-8139
▁북쪽에	-8140
▁전체의	-8141
▁돔	-8142
▁연고로	-8143
▁1896	-8144
돌프	-8145
▁나선	-8146
▁때도	-8147
▁명단	-8148
▁준공	-8149
▁힘이	-8150
케이팅	-8151
▁가지게	-8152
▁목적은	-8153
▁이익을	-8154
▁프리미어리그	-8155
▁찾을	-8156
▁간접	-8157
▁개성	-8158
▁MVP	-8159
▁센트럴	-8160
작은	-8161
▁제네	-8162
96	-8163
▁기재	-8164
▁얼마나	-8165
ED	-8166
황후	-8167
▁주말	-8168
▁전투가	-8169
랑이	-8170
편에	-8171
▁옹호	-8172
▁말하고	-8173
▁지역과	-8174
이치	-8175
있고	-8176
▁역전	-8177
▁제도의	-8178
▁왕립	-8179
▁유키	-8180
▁그랜드	-8181
▁스토리	-8182
▁비잔티움	-8183
▁구상	-8184
▁책봉	-8185
▁감독이다	-8186
▁깔	-8187
▁구는	-8188
▁맞게	-8189
▁아리	-8190
▁예능	-8191
▁주파	-8192
클린	-8193
▁국가에서	-8194
▁잊	-8195
▁Be	-8196
▁짙	-8197
둥이	-8198
▁결정을	-8199
▁1904	-8200
▁얇	-8201
ore	-8202
▁배제	-8203
ong	-8204
▁가쓰	-8205
▁메모	-8206
▁역과	-8207
▁입문	-8208
71	-8209
▁일본어	-8210
여래	-8211
▁가질	-8212
▁무늬	-8213
▁재즈	-8214
▁쿠바	-8215
해진다	-8216
▁대신에	-8217
▁일본군	-8218
▁자전거	-8219
업에	-8220
▁전원	-8221
DP	-8222
게이	-8223
시절	-8224
행은	-8225
▁친일반	-8226
▁위치하며	-8227
▁무선	-8228
▁왕위	-8229
합니다	-8230
▁테스트	-8231
칸센	-8232
▁지목	-8233
일리	-8234
중에서	-8235
▁145	-8236
▁군대가	-8237
▁곁	-8238
포는	-8239
-15	-8240
▁비스	-8241
▁생애	-8242
▁연설	-8243
▁이라는	-8244
▁상무	-8245
▁자손	-8246
▁의원이	-8247
▁두번째	-8248
▁막대한	-8249
▁포맷	-8250
▁사로잡	-8251
드르	-8252
활동	-8253
▁전쟁은	-8254
▁최종적으로	-8255
▁인조	-8256
▁메트로	-8257
▁정의할	-8258
▁군대는	-8259
▁능력이	-8260
▁브라우	-8261
▁편지를	-8262
▁분포한다	-8263
롤라	-8264
▁해제	-8265
▁158	-8266
격이	-8267
제품	-8268
▁밸	-8269
▁53	-8270
르바	-8271
▁대답	-8272
▁리드	-8273
▁언어로	-8274
▁락	-8275
더는	-8276
터로	-8277
▁모집	-8278
▁수도권	-8279
▁발생했다	-8280
진과	-8281
▁바티	-8282
▁재위	-8283
▁주에서	-8284
됐으며	-8285
▁과학적	-8286
▁바꾸었다	-8287
수산	-8288
▁모순	-8289
▁길이가	-8290
▁장르	-8291
▁머리를	-8292
색이	-8293
▁SM	-8294
▁공략	-8295
▁범주	-8296
▁라이온	-8297
▁브레이	-8298
▁이적했다	-8299
▁원형	-8300
건이	-8301
▁말할	-8302
▁포인	-8303
▁당한	-8304
하러	-8305
▁경력을	-8306
▁클래식	-8307
▁적대	-8308
▁찾는	-8309
▁주제로	-8310
성한	-8311
▁서남	-8312
▁여의	-8313
▁마스터	-8314
▁사용해	-8315
▁않도록	-8316
▁모델이다	-8317
iv	-8318
▁램	-8319
란을	-8320
▁내장	-8321
▁모르	-8322
▁주니	-8323
▁개념은	-8324
▁근거로	-8325
▁중력	-8326
하니	-8327
경기를	-8328
▁1911	-8329
▁결정했다	-8330
▁주어졌다	-8331
▁뷰	-8332
스와의	-8333
단계	-8334
▁정벌	-8335
▁이르고	-8336
▁않는다는	-8337
복지	-8338
타임	-8339
▁곳이	-8340
▁구조의	-8341
▁맡았으며	-8342
▁대로	-8343
▁원산	-8344
▁직접적인	-8345
▁전통적으로	-8346
▁중화인민공화국의	-8347
▁r	-8348
쪽의	-8349
▁여덟	-8350
▁최신	-8351
▁달의	-8352
▁여동생	-8353
▁중앙에	-8354
인들에게	-8355
▁발생하였다	-8356
▁친일반민족행위	-8357
자이며	-8358
▁훌륭한	-8359
공은	-8360
센트	-8361
▁NA	-8362
▁미시	-8363
▁전투에	-8364
▁티베트	-8365
▁원작으로	-8366
▁꾀	-8367
▁떠난	-8368
▁국가를	-8369
▁충분한	-8370
커는	-8371
▁DJ	-8372
▁De	-8373
서이다	-8374
▁방영되었다	-8375
▁뒤에는	-8376
▁남아있다	-8377
▁결혼을	-8378
▁내부의	-8379
▁하나를	-8380
소리	-8381
▁다루고	-8382
금의	-8383
▁대결	-8384
▁서서히	-8385
렸던	-8386
코가	-8387
▁양식	-8388
▁에스파	-8389
▁연구는	-8390
메르	-8391
진흥	-8392
▁여왕	-8393
▁해군의	-8394
▁앨런	-8395
▁불만을	-8396
▁후반에	-8397
▁에피소드	-8398
▁강이	-8399
▁동기	-8400
93	-8401
란의	-8402
▁연루	-8403
▁본격적인	-8404
63	-8405
져서	-8406
▁제휴	-8407
▁항공기	-8408
▁기여했다	-8409
▁고베	-8410
▁마라	-8411
▁노르웨	-8412
▁바이올	-8413
▁방식의	-8414
관찰	-8415
누리	-8416
클럽	-8417
마쓰	-8418
▁가요	-8419
▁플루	-8420
▁피고	-8421
▁기온은	-8422
▁위원회	-8423
▁자격을	-8424
안군	-8425
▁댄스	-8426
다이라	-8427
▁스타크래프트	-8428
▁가라	-8429
▁예언	-8430
소한	-8431
츠와	-8432
▁맞는	-8433
교로	-8434
▁후의	-8435
▁다음이	-8436
▁제목으로	-8437
▁착공	-8438
시스트	-8439
▁라이프	-8440
▁생각했다	-8441
명인	-8442
▁메가	-8443
▁트럼	-8444
▁항일	-8445
▁정도가	-8446
▁덴마크의	-8447
▁프로그램의	-8448
사상	-8449
▁방면	-8450
▁착수	-8451
▁언어를	-8452
리자	-8453
▁패턴	-8454
▁프로그램은	-8455
▁성질을	-8456
▁있다면	-8457
▁후보에	-8458
▁일찍이	-8459
▁토마스	-8460
▁섬은	-8461
▁제국이	-8462
이었다고	-8463
있으며	-8464
▁아우구	-8465
▁필라델	-8466
인조	-8467
▁연구하는	-8468
▁머무	-8469
▁원로	-8470
▁168	-8471
▁그룹의	-8472
▁스페셜	-8473
▁굉	-8474
화학	-8475
▁이순	-8476
▁진술	-8477
▁트위	-8478
노미야	-8479
▁SC	-8480
▁대학원	-8481
▁문재인	-8482
▁무료	-8483
▁신칸센	-8484
▁음악가	-8485
스티벌	-8486
▁북한의	-8487
▁이처럼	-8488
▁특수한	-8489
▁사람에게	-8490
▁시작했으며	-8491
온다	-8492
증이	-8493
▁일원으로	-8494
▁지연	-8495
▁디자이너	-8496
▁튜	-8497
▁험	-8498
▁용산	-8499
▁사상을	-8500
▁추증	-8501
마리	-8502
실과	-8503
천은	-8504
▁SN	-8505
▁야기	-8506
▁재단	-8507
▁벨라	-8508
▁유니버	-8509
▁적의	-8510
▁체제를	-8511
▁오스트레일리아의	-8512
▁자바	-8513
▁한신	-8514
▁없으나	-8515
▁크로스	-8516
▁자유롭게	-8517
▁법학	-8518
▁트라	-8519
▁향을	-8520
동에서	-8521
▁좋아하는	-8522
열한	-8523
인명	-8524
▁경고	-8525
▁황후	-8526
교회의	-8527
▁보여주고	-8528
▁기타리스트	-8529
기획	-8530
받지	-8531
▁대만	-8532
▁브로	-8533
였기	-8534
▁디젤	-8535
▁퇴각	-8536
▁받기도	-8537
▁스트라이	-8538
▁퍼시	-8539
▁물리학	-8540
▁왕으로	-8541
▁구체적인	-8542
▁사용자가	-8543
▁약한	-8544
▁우승에	-8545
▁서식한다	-8546
▁미네	-8547
▁크림	-8548
내에서	-8549
▁가능하게	-8550
▁사이에는	-8551
겼고	-8552
▁각기	-8553
▁용어	-8554
▁요소를	-8555
▁사무실은	-8556
AC	-8557
색은	-8558
생으로	-8559
▁연구가	-8560
▁현상이	-8561
▁기구	-8562
▁말한	-8563
▁인텔	-8564
▁포함해	-8565
▁부통령	-8566
▁아니며	-8567
▁서울에서	-8568
▁그랑	-8569
▁늘어나	-8570
▁레코드	-8571
av	-8572
▁뤼	-8573
켰다	-8574
▁김영삼	-8575
▁선수이자	-8576
79	-8577
오를	-8578
▁태조	-8579
▁컸	-8580
견을	-8581
▁끝이	-8582
▁형태가	-8583
▁칩	-8584
▁공전	-8585
▁남긴	-8586
▁유튜브	-8587
▁화려한	-8588
년대부터	-8589
up	-8590
측의	-8591
▁경북	-8592
▁반환	-8593
▁기술이	-8594
▁남쪽에	-8595
▁전염	-8596
▁미치는	-8597
톤의	-8598
산군	-8599
▁무려	-8600
▁두드러	-8601
▁무슬	-8602
▁목적을	-8603
▁맡게	-8604
▁시기의	-8605
▁어두운	-8606
▁한동안	-8607
▁운행하는	-8608
▁마케도니아	-8609
▁역사적으로	-8610
▁보잉	-8611
▁시마	-8612
▁조용	-8613
▁차남	-8614
그는	-8615
▁귀환	-8616
▁법무	-8617
▁친척	-8618
식물	-8619
▁시작해	-8620
▁교과	-8621
▁무력	-8622
▁장면	-8623
▁실시된	-8624
▁1909	-8625
▁취약	-8626
▁이론은	-8627
생이	-8628
▁발라	-8629
▁회의에서	-8630
온이	-8631
▁온도	-8632
▁죽을	-8633
69	-8634
▁펴	-8635
우와	-8636
▁부른	-8637
▁또다시	-8638
▁1500	-8639
홈런	-8640
▁토대로	-8641
▁개업	-8642
▁신장	-8643
▁평생	-8644
▁속도를	-8645
▁치렀다	-8646
기구	-8647
터에	-8648
투쟁	-8649
한을	-8650
▁사직	-8651
상으로는	-8652
▁퓨	-8653
로동	-8654
아와	-8655
▁따르는	-8656
▁잘못된	-8657
▁복구	-8658
▁실용	-8659
철도의	-8660
▁이자	-8661
▁때때	-8662
▁몰락	-8663
▁신라의	-8664
▁거슬러	-8665
▁발견되는	-8666
디의	-8667
백을	-8668
▁폐기	-8669
▁무대에	-8670
▁방식은	-8671
▁조사를	-8672
▁찾아가	-8673
▁노선은	-8674
▁)	-8675
▁내내	-8676
▁올림	-8677
▁리메이	-8678
수엘	-8679
▁간다	-8680
▁목격	-8681
▁백인	-8682
▁종전	-8683
▁중구	-8684
금으로	-8685
▁승리로	-8686
▁지중해	-8687
초에	-8688
팀은	-8689
▁상임	-8690
▁정원	-8691
렸을	-8692
▁번뇌	-8693
음으로	-8694
코프	-8695
통일	-8696
▁공무원	-8697
▁세워졌다	-8698
▁재발	-8699
▁협상	-8700
▁사용을	-8701
▁연방의	-8702
열이	-8703
▁페루	-8704
▁호수	-8705
▁희극	-8706
▁드래곤	-8707
▁후보를	-8708
ld	-8709
se	-8710
▁교섭	-8711
▁스틸	-8712
▁전성	-8713
분야	-8714
▁해임	-8715
▁캡	-8716
란이	-8717
▁아파트	-8718
▁비서	-8719
▁구조는	-8720
77	-8721
▁젖	-8722
론적	-8723
▁공용	-8724
▁마친	-8725
▁성씨	-8726
▁에릭	-8727
위원회의	-8728
▁시스템의	-8729
▁임명되어	-8730
IT	-8731
▁들은	-8732
▁비가	-8733
형이다	-8734
▁달러를	-8735
▁시대를	-8736
▁가면	-8737
▁섬을	-8738
리아는	-8739
연구소	-8740
▁사고로	-8741
IS	-8742
등록	-8743
지붕	-8744
▁대조	-8745
자리에	-8746
▁실험을	-8747
란은	-8748
▁막부	-8749
▁풀려	-8750
가에서	-8751
카스	-8752
▁채로	-8753
▁초창	-8754
▁건의	-8755
▁구름	-8756
▁땅에	-8757
▁그림을	-8758
▁지지하는	-8759
▁콩고	-8760
▁특유의	-8761
▁살던	-8762
~3	-8763
▁프랑스에서	-8764
▁선을	-8765
▁곡으로	-8766
▁이지	-8767
▁CPU	-8768
▁면에서	-8769
▁소재로	-8770
▁떼	-8771
진에	-8772
클라	-8773
▁운동이	-8774
▁어드	-8775
▁충격	-8776
철은	-8777
후보	-8778
▁메디	-8779
▁빌헬	-8780
▁관계로	-8781
카를	-8782
▁근접	-8783
▁건너가	-8784
▁그러자	-8785
▁기록에	-8786
▁게재	-8787
▁마산	-8788
▁무신	-8789
▁시간은	-8790
▁왕위를	-8791
▁주니어	-8792
▁마르크스	-8793
오리	-8794
▁소관의	-8795
▁의원은	-8796
▁일본으로	-8797
장한	-8798
▁폴란드의	-8799
▁아르메니아	-8800
중심	-8801
▁구마	-8802
▁무효	-8803
▁속도로	-8804
▁하와이	-8805
ith	-8806
▁법원	-8807
▁세로	-8808
▁프랜	-8809
▁강점기	-8810
▁형식을	-8811
병의	-8812
▁한양	-8813
▁부르며	-8814
▁음반을	-8815
▁털이	-8816
▁특급	-8817
▁훼손	-8818
▁전부터	-8819
73	-8820
▁발견했다	-8821
▁다가	-8822
▁파티	-8823
▁활성화	-8824
사추	-8825
패로	-8826
▁사장	-8827
▁근처의	-8828
▁판타지	-8829
▁규정하고	-8830
▁바위	-8831
▁시집	-8832
▁제약	-8833
▁출전했다	-8834
하였기	-8835
▁사용하며	-8836
ET	-8837
필드	-8838
▁마찰	-8839
학교에	-8840
▁사실은	-8841
▁조직의	-8842
▁밴드의	-8843
▁된다고	-8844
▁프로토콜	-8845
▁급진	-8846
▁라트	-8847
▁군사적	-8848
▁퀴	-8849
규칙	-8850
▁밖의	-8851
▁분광	-8852
▁흥행	-8853
▁양도	-8854
▁영주	-8855
치면서	-8856
▁기업의	-8857
▁일부로	-8858
▁중기의	-8859
형태	-8860
▁트윈	-8861
호선은	-8862
▁신사	-8863
▁악화	-8864
▁버전은	-8865
▁항해	-8866
▁코무네	-8867
▁비슷하다	-8868
▁바르셀로나	-8869
▁숙종	-8870
▁짓고	-8871
▁하우스	-8872
직한	-8873
▁병력	-8874
▁복수	-8875
▁일관	-8876
▁자식	-8877
▁착륙	-8878
▁거기에	-8879
▁때때로	-8880
▁라틴어	-8881
▁발견한	-8882
지대	-8883
▁민속	-8884
▁호르	-8885
▁료	-8886
▁융합	-8887
▁플라스	-8888
▁웰	-8889
▁쟁	-8890
질로	-8891
▁일렉	-8892
중에는	-8893
▁동남아시아	-8894
▁굵	-8895
층은	-8896
▁대폭	-8897
▁스릴	-8898
가루	-8899
▁메르	-8900
▁개발된	-8901
▁출시된	-8902
년대에는	-8903
니까	-8904
▁어렵다	-8905
▁구체적으로	-8906
▁한국방송	-8907
ML	-8908
이즈	-8909
▁고조	-8910
▁삼고	-8911
▁토머스	-8912
경과	-8913
▁대우	-8914
▁부흥	-8915
▁1915	-8916
미에	-8917
▁이글	-8918
▁형식의	-8919
꼬리	-8920
손은	-8921
▁시트	-8922
▁수록된	-8923
▁안타	-8924
▁거주하는	-8925
▁얘	-8926
훈은	-8927
▁메리	-8928
▁얻는	-8929
▁한강	-8930
▁하였는데	-8931
씨와	-8932
▁다녀	-8933
▁실패했다	-8934
▁가미	-8935
▁창건	-8936
▁멤버로	-8937
▁돌아갔다	-8938
one	-8939
▁공의	-8940
▁주문	-8941
▁명예의	-8942
▁알바니아	-8943
내기	-8944
질은	-8945
▁비극	-8946
▁에우	-8947
세에게	-8948
▁루트비히	-8949
▁대서양	-8950
ob	-8951
두는	-8952
해주	-8953
▁동독	-8954
베이스	-8955
▁경기장	-8956
▁만화가	-8957
▁갑작	-8958
▁베타	-8959
▁오렌	-8960
▁초점을	-8961
▁관통	-8962
▁무죄	-8963
▁측근	-8964
▁화면	-8965
▁건물을	-8966
▁철학자	-8967
레의	-8968
저는	-8969
▁반지	-8970
▁리투아	-8971
▁영감을	-8972
▁조치를	-8973
▁코치로	-8974
▁정확하게	-8975
▁지냈으며	-8976
91	-8977
글라	-8978
슨과	-8979
▁배정	-8980
▁부품	-8981
주년을	-8982
▁우리의	-8983
▁페이지	-8984
▁말하였다	-8985
▁인정받아	-8986
플러	-8987
학위를	-8988
▁무슬림	-8989
▁사이클	-8990
▁지금도	-8991
우며	-8992
▁사용이	-8993
▁관점에서	-8994
▁이치	-8995
▁제국은	-8996
▁손상	-8997
▁1895	-8998
▁껍	-8999
▁폼	-9000
일간	-9001
▁창시	-9002
▁캐스팅	-9003
택을	-9004
▁주를	-9005
▁곰	-9006
▁앱	-9007
그로	-9008
범죄	-9009
▁명문	-9010
▁특징은	-9011
▁히어로	-9012
바나	-9013
았을	-9014
▁둘은	-9015
▁박영	-9016
▁여론	-9017
▁비공식	-9018
▁응우옌	-9019
▁중심의	-9020
ry	-9021
이사	-9022
항으로	-9023
▁보내는	-9024
▁에스토	-9025
▁브라이언	-9026
▁생각된다	-9027
널드	-9028
지사	-9029
▁아가	-9030
▁평소	-9031
차전에서	-9032
▁성립한다	-9033
심한	-9034
있던	-9035
프에	-9036
▁하버드	-9037
▁안의	-9038
▁얻기	-9039
▁설립하였다	-9040
양은	-9041
▁끊임	-9042
▁성공한	-9043
:1	-9044
빈은	-9045
열의	-9046
▁배를	-9047
▁충족	-9048
▁힌두	-9049
▁특이한	-9050
▁사용하기	-9051
▁대전광역시	-9052
▁엔터테인먼트	-9053
▁김동	-9054
▁줄어	-9055
▁끝나고	-9056
▁역임한	-9057
ly	-9058
▁급속	-9059
▁진영	-9060
▁때로는	-9061
ast	-9062
▁삶의	-9063
편으로	-9064
▁황제가	-9065
▁슐	-9066
거는	-9067
▁바가	-9068
▁박탈	-9069
▁산타	-9070
▁작고	-9071
▁해적	-9072
▁점이다	-9073
▁조직을	-9074
▁베이스볼	-9075
목이	-9076
시까지	-9077
점이다	-9078
▁차례로	-9079
▁알려지지	-9080
ss	-9081
▁탕	-9082
▁중심이	-9083
▁회사는	-9084
▁이듬해인	-9085
중국	-9086
▁날개	-9087
▁보한다	-9088
▁아니면	-9089
▁전한다	-9090
▁친일인명	-9091
보에	-9092
▁보충	-9093
▁경우를	-9094
▁죽이고	-9095
▁파리에서	-9096
세츠	-9097
▁선진	-9098
▁전에는	-9099
강점	-9100
레를	-9101
▁유신	-9102
▁이토	-9103
▁출력	-9104
▁도심	-9105
▁섭취	-9106
▁좋다	-9107
▁팽창	-9108
▁1913	-9109
네의	-9110
▁펜실	-9111
스키는	-9112
어진다	-9113
▁별의	-9114
▁아베	-9115
서에서	-9116
▁건물이	-9117
▁독일은	-9118
▁동메달을	-9119
▁베네수엘	-9120
▁세균	-9121
▁설치류의	-9122
검찰	-9123
님이	-9124
▁독일에서	-9125
▁크리스토	-9126
▁써서	-9127
속을	-9128
미디어	-9129
풍을	-9130
▁풀어	-9131
▁거리가	-9132
▁트럭	-9133
▁리그에	-9134
▁한화	-9135
라이더	-9136
▁발매했다	-9137
▁공채	-9138
▁진출하였다	-9139
▁사격	-9140
▁학자	-9141
▁프랑스와	-9142
간이	-9143
▁MC	-9144
▁비즈	-9145
▁들어가는	-9146
러리	-9147
즈키	-9148
▁못할	-9149
각이	-9150
디에	-9151
▁합법	-9152
▁디즈니	-9153
번호	-9154
▁수신	-9155
이라도	-9156
▁155	-9157
▁성공적인	-9158
▁은메달을	-9159
과도	-9160
ort	-9161
▁기생	-9162
▁야생	-9163
▁합리	-9164
▁선언했다	-9165
▁스파르타	-9166
▁사헌	-9167
▁재편	-9168
▁주축	-9169
▁영역을	-9170
리타	-9171
▁군에	-9172
▁부패	-9173
▁뿌리	-9174
▁죄를	-9175
▁운행을	-9176
▁학생들이	-9177
미로	-9178
즈에	-9179
▁AM	-9180
▁석탄	-9181
▁통화	-9182
포스	-9183
▁응답	-9184
▁나이트	-9185
▁싫어	-9186
▁피에	-9187
▁전쟁으로	-9188
현악	-9189
▁쿠르	-9190
▁아이템	-9191
▁의견이	-9192
▁진정한	-9193
닉스	-9194
팩트	-9195
▁시로	-9196
량으로	-9197
▁언제나	-9198
금융	-9199
▁밀양	-9200
▁중순	-9201
▁출토	-9202
▁득점을	-9203
▁리버풀	-9204
▁일했다	-9205
▁작품에	-9206
▁캘리포니아주	-9207
▁물에	-9208
트리올	-9209
▁달러의	-9210
▁항공모	-9211
▁낮아	-9212
▁몰려	-9213
▁법을	-9214
▁제수	-9215
▁하천	-9216
▁900	-9217
과이	-9218
▁노력을	-9219
▁나가사키	-9220
업은	-9221
▁강과	-9222
▁이원	-9223
▁추모	-9224
설이	-9225
▁정찰	-9226
▁침해	-9227
▁카자흐	-9228
▁가능하며	-9229
▁길고	-9230
▁반박	-9231
▁생기는	-9232
▁의사를	-9233
▁한국에	-9234
▁과학기술	-9235
▁제외하고는	-9236
▁좌파	-9237
▁포괄	-9238
받는다	-9239
▁바꿔	-9240
▁자발	-9241
▁남부의	-9242
▁아이를	-9243
▁행성의	-9244
▁72	-9245
▁점유	-9246
진으로	-9247
▁엘리자베스	-9248
▁닿	-9249
▁복사	-9250
하였다는	-9251
end	-9252
▁의지	-9253
스테르	-9254
▁도호쿠	-9255
▁하거나	-9256
우치	-9257
민당	-9258
▁뜻의	-9259
▁5000	-9260
▁제작되었다	-9261
▁내보	-9262
▁장의	-9263
▁화제가	-9264
▁시작하는	-9265
숙한	-9266
톨레	-9267
▁빛의	-9268
▁촉구	-9269
▁타운	-9270
스컵	-9271
▁낙선	-9272
▁내외	-9273
▁포크	-9274
▁르네상	-9275
시피	-9276
▁우연히	-9277
▁원자로	-9278
테쓰	-9279
▁두루	-9280
▁쌓아	-9281
▁뉴욕에서	-9282
▁y	-9283
ind	-9284
▁UN	-9285
▁의병	-9286
▁잃은	-9287
▁주립	-9288
▁서브	-9289
▁풋볼	-9290
▁기록하여	-9291
▁사적	-9292
도이다	-9293
리스토	-9294
▁플레이스테이션	-9295
디스	-9296
리크	-9297
▁중계	-9298
▁들어오	-9299
▁진나라	-9300
▁치료를	-9301
글로	-9302
디가	-9303
리면서	-9304
▁발생할	-9305
▁둘러싼	-9306
투를	-9307
▁교외	-9308
▁모니	-9309
▁왕족	-9310
▁외의	-9311
▁후일	-9312
▁스릴러	-9313
▁영국은	-9314
▁Sh	-9315
번을	-9316
때문에	-9317
조약	-9318
▁커피	-9319
▁피부	-9320
▁과정은	-9321
▁노래는	-9322
▁진출에	-9323
▁연속으로	-9324
▁있습니다	-9325
▁디아	-9326
▁일제강점	-9327
▁필라델피아	-9328
▁오세	-9329
제국의	-9330
▁과거의	-9331
▁나갔다	-9332
▁되었지만	-9333
▁리메이크	-9334
▁승강장은	-9335
▁일으키는	-9336
▁달린	-9337
▁이미지를	-9338
▁동구	-9339
▁위안	-9340
▁맡았고	-9341
▁재산을	-9342
적이었다	-9343
▁침몰	-9344
▁부문에	-9345
▁거주하고	-9346
▁바그	-9347
▁아트	-9348
스트의	-9349
▁다이아	-9350
▁영화에	-9351
▁유니폼	-9352
▁수치	-9353
페이스	-9354
반응	-9355
츠가	-9356
티스	-9357
포의	-9358
▁de	-9359
▁가사	-9360
▁고도	-9361
▁주한	-9362
▁입단했다	-9363
각은	-9364
▁급행	-9365
▁기갑	-9366
▁오가	-9367
▁각본을	-9368
▁본사는	-9369
▁판결을	-9370
now	-9371
▁밝혔	-9372
▁창업	-9373
▁분야에	-9374
▁정부와	-9375
▁출연한	-9376
▁몸무게는	-9377
▁플레이어	-9378
차별	-9379
▁다큐멘터리	-9380
OC	-9381
▁An	-9382
▁관직	-9383
▁몬트리올	-9384
ok	-9385
▁의장	-9386
▁프레임	-9387
너의	-9388
▁느낀	-9389
▁불을	-9390
▁대주교	-9391
▁이곳은	-9392
모로	-9393
▁기동	-9394
▁따뜻	-9395
▁아서	-9396
▁후한	-9397
일에서	-9398
▁비평가	-9399
마와	-9400
▁잦	-9401
▁보상	-9402
▁약화	-9403
▁편리	-9404
▁라운드	-9405
▁오키나와	-9406
▁곡의	-9407
▁부착	-9408
▁금메달	-9409
▁않았기	-9410
▁보스니아	-9411
칭으로	-9412
▁윙	-9413
▁기요	-9414
▁대외	-9415
▁기념물	-9416
▁새누리	-9417
▁형태는	-9418
▁주식회사	-9419
함의	-9420
▁진단	-9421
▁건물의	-9422
▁시기는	-9423
공동	-9424
▁최저	-9425
▁3000	-9426
각의	-9427
▁공학	-9428
▁사육	-9429
▁민주주의	-9430
종과	-9431
▁오디오	-9432
▁믹	-9433
전기	-9434
▁대승	-9435
▁상징하는	-9436
▁.	-9437
▁끌려	-9438
▁외야	-9439
▁했다는	-9440
기관으로	-9441
▁조건으로	-9442
▁지방에서	-9443
▁분리되어	-9444
스러	-9445
▁팀에	-9446
▁집으로	-9447
하였다가	-9448
▁분류된다	-9449
▁사용될	-9450
▁일어날	-9451
▁둥근	-9452
▁미하	-9453
▁결승전	-9454
▁카이사	-9455
버는	-9456
조정	-9457
▁액체	-9458
▁식으로	-9459
▁삿	-9460
▁강경	-9461
▁로빈	-9462
▁브래	-9463
▁제사	-9464
▁할당	-9465
▁갤럭	-9466
▁고성	-9467
▁외곽	-9468
쥐과에	-9469
▁정책에	-9470
▁컨트롤	-9471
▁이인	-9472
▁일에	-9473
자리를	-9474
화하여	-9475
▁작위를	-9476
▁꽤	-9477
▁비단	-9478
대학원	-9479
우주연	-9480
▁체계를	-9481
▁있어서는	-9482
▁사유	-9483
▁양키	-9484
▁평행	-9485
▁학부	-9486
▁속도가	-9487
▁스카이	-9488
▁이루었다	-9489
▁걱	-9490
희의	-9491
▁가벼	-9492
▁이오	-9493
▁북부에	-9494
▁전자기	-9495
▁어려움을	-9496
라미	-9497
▁이틀	-9498
▁흔들	-9499
▁1.5	-9500
▁공사가	-9501
▁활동은	-9502
▁스테이지	-9503
구리	-9504
챌린	-9505
▁감지	-9506
▁참여하여	-9507
플라	-9508
▁위협을	-9509
▁후지와	-9510
해방	-9511
▁친정	-9512
▁객관	-9513
▁등재	-9514
▁무소	-9515
▁로맨	-9516
▁함유	-9517
▁흐름	-9518
▁김대중	-9519
ock	-9520
▁수단	-9521
▁명백	-9522
▁원내	-9523
민을	-9524
▁CE	-9525
▁부장	-9526
▁수수	-9527
▁쉬운	-9528
▁용이	-9529
▁포로	-9530
▁현장	-9531
▁도움으로	-9532
▁헐	-9533
100	-9534
문제연구	-9535
▁조문이다	-9536
▁오스트리아의	-9537
▁조치	-9538
▁누르고	-9539
▁대통령을	-9540
적에	-9541
초를	-9542
▁당대	-9543
사추세츠	-9544
▁관리하고	-9545
▁국가대표팀의	-9546
▁롬	-9547
런스	-9548
▁간부	-9549
▁모음	-9550
▁연호	-9551
▁모델을	-9552
▁트레이드	-9553
블로	-9554
▁술탄	-9555
▁실종	-9556
▁시드니	-9557
▁차지한	-9558
▁셈	-9559
▁시작된다	-9560
▁않았으나	-9561
▁군수	-9562
▁안장	-9563
ord	-9564
▁IP	-9565
▁월간	-9566
▁미국에서는	-9567
▁모두가	-9568
▁지점에	-9569
▁설립했다	-9570
도사	-9571
▁무용	-9572
▁와카	-9573
▁향한	-9574
화하고	-9575
qu	-9576
범한	-9577
▁가즈	-9578
▁안티	-9579
▁외무	-9580
▁수행하는	-9581
▁정부로부터	-9582
▁듯한	-9583
▁레논	-9584
▁며칠	-9585
▁지명을	-9586
▁내린	-9587
▁미얀	-9588
▁일도	-9589
▁평등	-9590
▁구조로	-9591
▁부정적인	-9592
환이	-9593
▁바뀐	-9594
▁캄보	-9595
레오	-9596
▁동화	-9597
▁사료	-9598
▁순천	-9599
▁심판	-9600
▁열고	-9601
정부의	-9602
▁공간의	-9603
▁쿨	-9604
칭을	-9605
▁멈추	-9606
▁동명의	-9607
수수	-9608
▁신하	-9609
▁마쓰다이라	-9610
그리	-9611
야가	-9612
▁이광	-9613
▁쓰이고	-9614
▁유소년	-9615
▁받았으나	-9616
▁자신에게	-9617
▁이바	-9618
▁탓에	-9619
▁드러나	-9620
▁민주화	-9621
▁시설이	-9622
고속	-9623
불교	-9624
▁MP	-9625
▁부과	-9626
▁영의	-9627
▁자율	-9628
▁국가에	-9629
▁멕시코의	-9630
▁하나님의	-9631
산맥	-9632
▁IT	-9633
▁기호	-9634
▁스핀	-9635
길을	-9636
렀고	-9637
▁실려	-9638
▁전신	-9639
▁줄기	-9640
▁그렇지	-9641
▁대학을	-9642
▁아래로	-9643
▁아이슬	-9644
팀인	-9645
▁내고	-9646
▁내야	-9647
▁제갈	-9648
▁교수는	-9649
▁일컫는	-9650
▁어울	-9651
▁화살	-9652
▁노무현	-9653
▁무거운	-9654
▁일어났	-9655
▁코리아	-9656
하겠다는	-9657
▁나라에서	-9658
▁경력	-9659
밀리	-9660
양군	-9661
▁히데요	-9662
▁움직이는	-9663
▁관람	-9664
▁교수가	-9665
▁별다른	-9666
▁라트비아	-9667
▁보여주었다	-9668
▁소닉	-9669
▁소수의	-9670
▁소속이다	-9671
▁커뮤니티	-9672
▁것인	-9673
▁싶어	-9674
▁되었을	-9675
롤라이나	-9676
▁우승하였다	-9677
▁노비	-9678
제이다	-9679
왕에	-9680
바닥	-9681
학회	-9682
▁클린	-9683
▁나섰다	-9684
▁넣었다	-9685
▁조선인	-9686
포가	-9687
▁빌리	-9688
▁폐위	-9689
▁앨범이다	-9690
▁계곡	-9691
▁마케팅	-9692
▁활발한	-9693
▁대처	-9694
▁요금	-9695
원군	-9696
▁라이선	-9697
▁ST	-9698
▁경부	-9699
▁시칠	-9700
▁정면	-9701
▁총괄	-9702
▁남부에	-9703
▁지나치게	-9704
수인	-9705
▁푸른	-9706
▁대회의	-9707
▁개관	-9708
▁규제	-9709
▁애틀	-9710
▁피어	-9711
당하였다	-9712
▁엘리베이	-9713
▁이리	-9714
케이션	-9715
▁개혁을	-9716
▁남아있는	-9717
II	-9718
▁햄	-9719
▁들이	-9720
▁1916	-9721
층이	-9722
테스	-9723
▁세대	-9724
▁여기에는	-9725
▁뿔	-9726
▁부를	-9727
▁추상	-9728
원들이	-9729
▁나타낼	-9730
타나	-9731
▁날짜	-9732
▁구조가	-9733
▁만났다	-9734
▁Love	-9735
▁소유하고	-9736
▁바닷	-9737
▁왕은	-9738
▁이마	-9739
▁가난한	-9740
▁만나게	-9741
▁밟	-9742
모니	-9743
자도	-9744
▁받기	-9745
▁병행	-9746
▁이화	-9747
▁새겨져	-9748
▁여행을	-9749
▁참가하고	-9750
자연	-9751
▁보니	-9752
▁유격	-9753
▁속으로	-9754
▁주장하고	-9755
▁방법이다	-9756
▁분데스리가	-9757
능력	-9758
학자인	-9759
▁봐	-9760
달아	-9761
▁관장	-9762
▁극히	-9763
▁나의	-9764
▁이슈	-9765
▁전인	-9766
▁종결	-9767
▁종의	-9768
▁캠페	-9769
▁선교사	-9770
▁꼴	-9771
수아	-9772
▁덧붙여	-9773
▁아버지와	-9774
_9	-9775
ee	-9776
고쿠	-9777
▁이영	-9778
▁회담	-9779
▁고려의	-9780
▁의회는	-9781
▁지어졌다	-9782
다리	-9783
▁교도	-9784
▁사카	-9785
▁토마	-9786
▁목표를	-9787
▁경기에서는	-9788
▁확인되었다	-9789
▁전례	-9790
▁챌린	-9791
▁공사를	-9792
▁페스티벌	-9793
▁고발	-9794
▁구릉	-9795
▁사르	-9796
▁옷을	-9797
▁유출	-9798
▁담당하고	-9799
▁둘러싸고	-9800
▁시절부터	-9801
▁백악	-9802
▁송시	-9803
▁염색	-9804
▁모델은	-9805
▁걸어	-9806
론에서	-9807
받을	-9808
▁꿈을	-9809
야를	-9810
학이	-9811
▁전체가	-9812
her	-9813
▁도구	-9814
▁신흥	-9815
▁차기	-9816
▁대학에	-9817
▁선수들이	-9818
▁낼	-9819
행의	-9820
▁마천	-9821
▁서해	-9822
▁대법원	-9823
▁작곡한	-9824
▁°	-9825
▁하얀	-9826
▁거리는	-9827
▁서쪽에	-9828
▁이상으로	-9829
항에	-9830
▁놓은	-9831
▁비슷하게	-9832
▁룩	-9833
▁발원	-9834
▁쫓겨	-9835
▁포인트	-9836
▁수평	-9837
▁Sp	-9838
▁격퇴	-9839
▁마시	-9840
▁다리를	-9841
림이	-9842
▁세미	-9843
▁조반	-9844
▁강제로	-9845
▁시작되어	-9846
▁제주특별자치	-9847
돌이	-9848
네스코	-9849
렸으나	-9850
▁스파이	-9851
▁않았다고	-9852
▁사단법인이다	-9853
▁막내	-9854
시에는	-9855
이었기	-9856
▁부대는	-9857
▁로스앤젤레스에서	-9858
▁눈이	-9859
▁두산	-9860
▁무라	-9861
▁신용	-9862
▁쓰인	-9863
년이다	-9864
▁참고로	-9865
▁엉	-9866
전투	-9867
▁나아	-9868
▁힘입	-9869
▁방송국	-9870
망이	-9871
▁전념	-9872
▁찾기	-9873
▁건물로	-9874
▁성균관	-9875
▁아이슬란드	-9876
▁고무	-9877
▁구미	-9878
▁기체	-9879
▁손해	-9880
▁곡이다	-9881
▁귀중한	-9882
▁빌헬름	-9883
▁조금씩	-9884
▁아니지만	-9885
바야	-9886
병원	-9887
아나	-9888
소이다	-9889
▁부대를	-9890
▁은퇴를	-9891
▁투르크	-9892
▁일어나자	-9893
소스	-9894
자본	-9895
▁매카	-9896
▁중도	-9897
권에서	-9898
▁것에서	-9899
▁PD	-9900
▁맞추어	-9901
▁시즌에는	-9902
▁샬	-9903
연속	-9904
▁급격히	-9905
▁끝까지	-9906
▁시나리오	-9907
예를	-9908
주식	-9909
청에	-9910
▁구리	-9911
▁진행된	-9912
▁측면에서	-9913
▁검증	-9914
▁미토	-9915
▁수렴	-9916
▁아폴	-9917
▁럭	-9918
키와	-9919
황을	-9920
▁거론	-9921
▁관습	-9922
▁복지	-9923
▁나이가	-9924
▁전세계	-9925
▁누군	-9926
▁채권	-9927
▁계획에	-9928
▁기록된	-9929
▁바꾸어	-9930
▁십자가	-9931
선이다	-9932
▁출전해	-9933
▁손자	-9934
▁실시간	-9935
▁있었다는	-9936
▁안쪽	-9937
시부터	-9938
▁소설을	-9939
타카	-9940
▁여기에서	-9941
▁거행	-9942
▁난이	-9943
년간의	-9944
달라고	-9945
▁얻는다	-9946
▁동래	-9947
류이다	-9948
▁개발에	-9949
리그에서	-9950
려서	-9951
▁왕실	-9952
세스	-9953
▁He	-9954
▁My	-9955
▁관중	-9956
하려면	-9957
▁결혼했다	-9958
▁동년	-9959
▁쇼핑	-9960
▁신속	-9961
▁전역	-9962
▁통칭	-9963
군사	-9964
▁분배	-9965
▁첨가	-9966
▁과정에	-9967
▁마쳤다	-9968
▁이에야	-9969
란히	-9970
▁77	-9971
▁길게	-9972
▁맞지	-9973
왔으며	-9974
▁광범위한	-9975
▁일시적으로	-9976
고도	-9977
안타	-9978
▁소총	-9979
▁통근	-9980
▁생각하고	-9981
▁앓	-9982
▁훔	-9983
인들	-9984
▁필름	-9985
년동안	-9986
▁이스트	-9987
▁정교회	-9988
▁젤	-9989
방은	-9990
▁63	-9991
▁시켜	-9992
▁작센	-9993
▁게오	-9994
▁닛폰	-9995
▁영남	-9996
▁임상	-9997
▁전세	-9998
▁에스파냐	-9999
박스	-10000
▁김태	-10001
▁신비	-10002
▁리비아	-10003
▁총선거	-10004
▁참가하는	-10005
▁끓	-10006
▁cm	-10007
작품	-10008
~19	-10009
▁시라	-10010
▁장난	-10011
▁해인	-10012
▁해주	-10013
▁양식을	-10014
▁인물을	-10015
▁보완	-10016
▁소실	-10017
▁요르	-10018
▁충격을	-10019
▁비즈니스	-10020
▁사우디아	-10021
란트	-10022
▁식량	-10023
▁다음에	-10024
▁실질적인	-10025
▁하인리히	-10026
▁디스플레이	-10027
▁그중	-10028
▁리얼	-10029
▁아벨	-10030
▁팩	-10031
바시	-10032
채를	-10033
▁권위	-10034
▁서경	-10035
▁숨겨	-10036
▁사이가	-10037
▁앨범의	-10038
▁시호를	-10039
▁활약한	-10040
ib	-10041
▁딸을	-10042
▁잎은	-10043
▁동쪽에	-10044
▁수록곡	-10045
▁미스	-10046
▁배틀	-10047
▁컴파	-10048
-6	-10049
▁붓	-10050
▁매개	-10051
▁성공하였다	-10052
▁두어	-10053
▁선수를	-10054
▁쓰였다	-10055
▁미카	-10056
▁시즌의	-10057
▁어려움	-10058
▁안산	-10059
▁진동	-10060
▁데뷔를	-10061
▁레이저	-10062
▁물리적	-10063
아프리카	-10064
▁매사추세츠	-10065
지나	-10066
▁화재	-10067
타리오	-10068
▁사회에	-10069
▁정치가	-10070
▁시절에는	-10071
▁갈아	-10072
▁생각해	-10073
▁제품을	-10074
됨으로써	-10075
▁하나이며	-10076
▁학교에서	-10077
SS	-10078
수사	-10079
▁먹고	-10080
▁한쪽	-10081
▁홈페이지	-10082
▁개그	-10083
▁트레	-10084
▁기간에	-10085
▁퍼시픽	-10086
여객	-10087
전도	-10088
주간	-10089
▁단종	-10090
지역의	-10091
놓은	-10092
려면	-10093
▁우즈	-10094
아메리카	-10095
▁솟	-10096
셰비	-10097
주일	-10098
▁왜냐	-10099
▁생겼다	-10100
▁않는다고	-10101
▁개화	-10102
▁협의	-10103
▁선거를	-10104
▁일본을	-10105
▁변경하였다	-10106
▁※	-10107
▁옐	-10108
봉을	-10109
짜리	-10110
▁요소가	-10111
▁있으면서	-10112
▁대상을	-10113
▁알렸다	-10114
▁진행된다	-10115
▁계절	-10116
▁광산	-10117
▁비오	-10118
▁사천	-10119
▁치명	-10120
▁결과에	-10121
▁준우승을	-10122
▁민족문제연구	-10123
▁날아	-10124
▁향후	-10125
▁인물이	-10126
▁중간에	-10127
▁선수이며	-10128
▁사우디아라비아	-10129
▁신호를	-10130
통이	-10131
풍의	-10132
▁몸에	-10133
과정을	-10134
▁종으로	-10135
크에	-10136
▁59	-10137
▁일조	-10138
▁총대	-10139
왕으로	-10140
▁히가시	-10141
▁개발되었다	-10142
.<	-10143
당인	-10144
런트	-10145
서도	-10146
▁나눌	-10147
▁봉사	-10148
▁카탈	-10149
▁탈환	-10150
▁해를	-10151
▁동물의	-10152
▁문서는	-10153
▁서재	-10154
▁장로	-10155
원들은	-10156
▁단위로	-10157
▁중심기압	-10158
▁광주광역시	-10159
▁박물관	-10160
바흐	-10161
식품	-10162
▁고분	-10163
▁러브	-10164
▁거느리고	-10165
▁결정적인	-10166
~5	-10167
책임	-10168
타케	-10169
▁Un	-10170
▁선구	-10171
일이다	-10172
▁지속적인	-10173
링은	-10174
▁곡이	-10175
해지는	-10176
▁기리기	-10177
▁배웠다	-10178
▁승리한	-10179
ck	-10180
결합	-10181
처리	-10182
▁신규	-10183
▁지정된	-10184
▁인정하지	-10185
▁모으	-10186
▁목사	-10187
▁서사	-10188
브리지	-10189
▁마을을	-10190
▁자리잡고	-10191
작의	-10192
▁NBA	-10193
▁교차로	-10194
▁칭호를	-10195
▁대신하여	-10196
▁하드웨어	-10197
▁성우이다	-10198
번은	-10199
▁좌표	-10200
해왔다	-10201
▁유네스코	-10202
ge	-10203
▁육성	-10204
▁일컬	-10205
▁리눅스	-10206
▁시즌이	-10207
▁요미우리	-10208
AP	-10209
석기	-10210
석탑	-10211
▁버튼	-10212
작이	-10213
해와	-10214
▁공직	-10215
▁의뢰	-10216
▁증기	-10217
▁콘크	-10218
▁팀인	-10219
▁공로로	-10220
▁회사를	-10221
▁사건이다	-10222
io	-10223
크에서	-10224
▁월드컵에서	-10225
메라	-10226
항이	-10227
▁이나	-10228
자원	-10229
▁IBM	-10230
▁네이버	-10231
▁줄여서	-10232
학적으로	-10233
▁찌	-10234
▁템	-10235
▁자본주의	-10236
▁활동하는	-10237
르며	-10238
열은	-10239
▁모방	-10240
▁목조	-10241
▁엔지	-10242
▁왕비	-10243
▁종은	-10244
되지는	-10245
▁철도의	-10246
▁문화체육	-10247
▁얻고	-10248
▁경험이	-10249
▁운동은	-10250
▁장치를	-10251
▁황해도	-10252
▁말기	-10253
▁소환	-10254
▁전압	-10255
▁지혜	-10256
▁투구	-10257
▁국가는	-10258
▁섬으로	-10259
▁세계대	-10260
▁김용	-10261
▁놓았다	-10262
▁요구했다	-10263
▁하더라도	-10264
토스	-10265
▁62	-10266
▁신생	-10267
▁앞면	-10268
▁진정	-10269
▁통일신	-10270
▁갇	-10271
키를	-10272
▁미치	-10273
▁식별	-10274
▁연애	-10275
▁전진	-10276
▁주차	-10277
거리는	-10278
▁밑에서	-10279
▁질량은	-10280
▁대한민국은	-10281
▁봤	-10282
▁알제	-10283
열대	-10284
하르트	-10285
▁주제가	-10286
▁제외하면	-10287
번에	-10288
▁매출	-10289
▁시그	-10290
놓고	-10291
▁두개	-10292
▁영어로	-10293
86	-10294
▁바실	-10295
▁성모	-10296
▁앉아	-10297
▁총재	-10298
▁영향력	-10299
▁자신과	-10300
▁후쿠시마	-10301
▁해운	-10302
▁생각하는	-10303
선언	-10304
▁에버	-10305
▁좌절	-10306
▁추격	-10307
▁영상을	-10308
▁음식을	-10309
▁비판했다	-10310
▁진출했다	-10311
▁역에	-10312
▁마을의	-10313
▁마이너	-10314
▁한국전쟁	-10315
▁굉장	-10316
▁어휘	-10317
▁도시가	-10318
▁디비전	-10319
▁승인을	-10320
▁지방을	-10321
▁중심지는	-10322
박한	-10323
▁존중	-10324
고등학교를	-10325
te	-10326
▁kg	-10327
▁리스	-10328
▁초반에	-10329
만원	-10330
▁경비	-10331
▁평면	-10332
군이다	-10333
▁방식이	-10334
▁준비를	-10335
▁찾아볼	-10336
▁중에서는	-10337
가고	-10338
르노	-10339
ack	-10340
▁mm	-10341
▁그다	-10342
▁만의	-10343
▁상반	-10344
이면서	-10345
▁펼쳤다	-10346
▁존재하며	-10347
IV	-10348
린을	-10349
태평양	-10350
▁프랑스어	-10351
▁Ar	-10352
▁라우	-10353
▁알코	-10354
▁영조	-10355
▁제조업	-10356
▁시스템이	-10357
▁돋	-10358
턴의	-10359
하우	-10360
▁다중	-10361
▁드림	-10362
▁특징이	-10363
아리	-10364
▁현저	-10365
래스카	-10366
▁기반의	-10367
현과	-10368
▁나눠	-10369
▁몰래	-10370
▁볼리	-10371
▁부족한	-10372
▁긍정적인	-10373
Hz	-10374
척의	-10375
층을	-10376
▁미주	-10377
▁역설	-10378
▁코트	-10379
▁오하이	-10380
▁문화방송	-10381
생산	-10382
차와	-10383
▁아예	-10384
▁아즈	-10385
▁네이션	-10386
▁통틀	-10387
▁밴드는	-10388
▁시점에서	-10389
▁바른	-10390
▁유언	-10391
▁팔레스타	-10392
▁탤	-10393
음과	-10394
▁진짜	-10395
갔으며	-10396
▁불교의	-10397
▁에티오	-10398
모와	-10399
▁억압	-10400
▁진군	-10401
▁국가로	-10402
▁연결된	-10403
▁지적했다	-10404
자책	-10405
카라	-10406
▁부수	-10407
▁주식회	-10408
시키며	-10409
▁우라늄	-10410
▁태도를	-10411
▁사라졌다	-10412
냈고	-10413
부문	-10414
작이다	-10415
▁펜실베이	-10416
내어	-10417
찬을	-10418
▁법조	-10419
▁빠진	-10420
버스터	-10421
▁125	-10422
▁군대의	-10423
▁도착한	-10424
▁기록하는	-10425
▁선보였다	-10426
▁–	-10427
▁밑에	-10428
▁시설을	-10429
▁아마도	-10430
▁호평을	-10431
위원으로	-10432
씨로	-10433
위대	-10434
▁부천	-10435
▁할리우	-10436
▁시작하였고	-10437
▁톈	-10438
▁계몽	-10439
▁조건이	-10440
▁땄	-10441
.25	-10442
▁댐	-10443
▁높고	-10444
▁회고	-10445
▁나이지	-10446
강은	-10447
▁깨달	-10448
▁담겨	-10449
▁돌연	-10450
▁무승	-10451
▁채무	-10452
▁지식을	-10453
▁마음작용	-10454
▁추정되는	-10455
크스	-10456
▁관념	-10457
▁느껴	-10458
▁설탕	-10459
▁여수	-10460
증으로	-10461
▁왕위에	-10462
▁주장한	-10463
학교에서	-10464
포구	-10465
▁이반	-10466
▁지폐	-10467
▁사회를	-10468
▁중요하다	-10469
▁지정하여	-10470
▁편입되었다	-10471
▁친일인명사전	-10472
▁턱	-10473
공산당	-10474
▁왜냐하면	-10475
어지는	-10476
▁북부의	-10477
▁허리케	-10478
▁리가	-10479
▁링컨	-10480
▁물고	-10481
▁하락	-10482
▁도서관	-10483
▁전선	-10484
▁피에르	-10485
▁힘입어	-10486
CD	-10487
준의	-10488
▁배치되어	-10489
▁갓	-10490
▁기습	-10491
▁이래로	-10492
▁관리하는	-10493
▁이루어지고	-10494
▁받침	-10495
박쥐는	-10496
창을	-10497
▁경사	-10498
▁고쳐	-10499
이거나	-10500
▁업적을	-10501
▁위기를	-10502
▁정신적	-10503
스틴	-10504
▁로저	-10505
▁순수한	-10506
▁되었다가	-10507
왕과	-10508
ate	-10509
▁오빠	-10510
▁지고	-10511
▁최근의	-10512
TC	-10513
▁시초	-10514
▁구간을	-10515
▁제사를	-10516
▁이후부터	-10517
▁조선인민	-10518
일체	-10519
통의	-10520
▁기지	-10521
▁보지	-10522
▁힘든	-10523
▁감정을	-10524
▁밀접한	-10525
▁의식을	-10526
제이	-10527
ood	-10528
▁합계	-10529
▁기술의	-10530
▁대통령에	-10531
▁모드	-10532
본으로	-10533
▁들어온	-10534
▁무기를	-10535
▁장관을	-10536
▁사망하고	-10537
▁울산광역시	-10538
림의	-10539
▁고지	-10540
▁논문을	-10541
▁와중에	-10542
▁넣고	-10543
▁보전	-10544
▁선은	-10545
▁야간	-10546
▁연세	-10547
▁장학	-10548
▁전당	-10549
▁핵무	-10550
▁105	-10551
▁출전하였다	-10552
경영	-10553
구역	-10554
십자	-10555
의원	-10556
천이	-10557
▁실린	-10558
▁이긴	-10559
▁제독	-10560
▁중소	-10561
▁서식하는	-10562
▁일종으로	-10563
▁내리	-10564
▁시뮬	-10565
oy	-10566
▁물질을	-10567
레가	-10568
주쿠	-10569
-11	-10570
▁이내	-10571
▁생각할	-10572
녀를	-10573
▁이름인	-10574
▁등장했다	-10575
병은	-10576
시민	-10577
ame	-10578
▁그날	-10579
▁연기를	-10580
▁오렌지	-10581
▁이산화	-10582
▁자체는	-10583
▁최대한	-10584
대회에서	-10585
▁쇼와	-10586
▁가수로	-10587
▁학교에	-10588
▁스케이팅	-10589
▁체포되어	-10590
▁학자들은	-10591
서야	-10592
▁개교	-10593
▁선이	-10594
▁입체	-10595
내셔널	-10596
▁자신도	-10597
만여	-10598
장관	-10599
티모	-10600
▁도주	-10601
▁생산하는	-10602
TA	-10603
▁샹	-10604
매치	-10605
시타	-10606
족에	-10607
▁김재	-10608
▁깨닫	-10609
▁범위	-10610
▁기능은	-10611
▁음악의	-10612
▁중추원	-10613
▁활약했다	-10614
▁어항	-10615
▁전제	-10616
인들과	-10617
▁실패로	-10618
▁기점으로	-10619
▁담긴	-10620
▁업그	-10621
▁잃었다	-10622
▁자세한	-10623
▁지구에서	-10624
▁고려대학교	-10625
~4	-10626
▁공인	-10627
▁조상	-10628
▁내부에	-10629
▁비용을	-10630
사태	-10631
▁드럼	-10632
▁왕자	-10633
▁굉장히	-10634
▁의미의	-10635
▁페르디	-10636
만명	-10637
보안	-10638
▁색을	-10639
▁영문	-10640
▁태종	-10641
▁문과에	-10642
▁대관	-10643
▁번식	-10644
▁사기	-10645
년대의	-10646
▁진출을	-10647
▁휠	-10648
에너	-10649
▁스콧	-10650
방에서	-10651
▁부분적으로	-10652
▁김포	-10653
▁단단	-10654
▁드문	-10655
화에서	-10656
▁장려	-10657
스포츠	-10658
▁공동체	-10659
▁수술을	-10660
▁일본과	-10661
▁1894	-10662
▁이후로는	-10663
기기	-10664
▁광해	-10665
▁명에	-10666
▁요크	-10667
▁재활	-10668
▁차가	-10669
▁그쳤다	-10670
▁되돌아	-10671
▁상태였다	-10672
감과	-10673
▁붙은	-10674
현으로	-10675
▁감독과	-10676
▁경찰은	-10677
▁여름에	-10678
▁참여하는	-10679
▁경상남도의	-10680
MS	-10681
제프	-10682
▁아세	-10683
▁주석	-10684
▁문제의	-10685
IP	-10686
버러	-10687
예정	-10688
▁그냥	-10689
▁임기	-10690
▁그러던	-10691
▁회사가	-10692
으로의	-10693
▁실패하였다	-10694
목적	-10695
마르크	-10696
▁의회의	-10697
▁최상위	-10698
▁라스	-10699
▁대회에서는	-10700
▁반해	-10701
▁섬유	-10702
▁시흥	-10703
스런	-10704
외선	-10705
▁AS	-10706
▁강은	-10707
▁부사	-10708
▁위임	-10709
강에서	-10710
▁자금을	-10711
▁최후의	-10712
▁하나였다	-10713
▁독립된	-10714
▁펀	-10715
▁도는	-10716
▁적고	-10717
▁추출	-10718
▁학위	-10719
라리	-10720
라브	-10721
루와	-10722
인치	-10723
캠퍼	-10724
▁환원	-10725
임에도	-10726
▁존재했던	-10727
몬드	-10728
역사	-10729
▁위기	-10730
▁경제학	-10731
▁대한민국에	-10732
회장	-10733
▁언더	-10734
▁투옥	-10735
▁고양이	-10736
르지	-10737
벤처	-10738
약품	-10739
▁교구	-10740
▁권고	-10741
▁레전	-10742
▁발을	-10743
▁진흥	-10744
▁말기의	-10745
▁것으로서	-10746
▁문화체육관광	-10747
▁햇	-10748
▁공민	-10749
▁자동으로	-10750
▁조선로동	-10751
▁펜실베이니아	-10752
▁위탁	-10753
▁하야	-10754
▁구동	-10755
▁주소	-10756
▁음반의	-10757
▁컬럼비아	-10758
▁발매하였다	-10759
▁어긋	-10760
▁프로레	-10761
▁밴드이다	-10762
교에	-10763
▁마오	-10764
▁부적	-10765
운동에	-10766
▁겪었다	-10767
▁섬에서	-10768
▁월드컵에	-10769
▁함으로써	-10770
종인	-10771
증은	-10772
▁임용	-10773
▁희귀	-10774
▁유래한	-10775
리라	-10776
실험	-10777
▁낱말	-10778
▁올바	-10779
▁직선	-10780
책으로	-10781
▁시장을	-10782
▁인접한	-10783
감에	-10784
▁구제	-10785
나갔다	-10786
▁다음해	-10787
▁비난을	-10788
ure	-10789
▁시와	-10790
나라에	-10791
정에서	-10792
▁2.0	-10793
▁규모로	-10794
▁시리즈는	-10795
▁인터페이	-10796
▁자연스럽게	-10797
ov	-10798
번뇌	-10799
▁밤에	-10800
▁사사	-10801
▁표명	-10802
가지의	-10803
냐는	-10804
운드를	-10805
▁도로이다	-10806
▁오고	-10807
▁정한	-10808
▁개발이	-10809
▁수도인	-10810
▁움직임	-10811
▁참여하고	-10812
~2	-10813
신에	-10814
▁갤럭시	-10815
▁먹이를	-10816
▁치러진	-10817
▁직접적으로	-10818
▁숭배	-10819
▁신이	-10820
즈에서	-10821
▁중국과	-10822
▁근처에서	-10823
교와	-10824
급을	-10825
▁노트	-10826
방으로	-10827
풍으로	-10828
바이러스	-10829
▁도입되었다	-10830
▁김상	-10831
▁허브	-10832
쳤으며	-10833
▁북쪽의	-10834
▁제안을	-10835
▁그룹이다	-10836
▁행정구역	-10837
▁텔	-10838
▁협박	-10839
등으로	-10840
▁환경을	-10841
▁미스터	-10842
▁일컫는다	-10843
▁리투아니아	-10844
ff	-10845
변에	-10846
▁re	-10847
▁기름	-10848
▁즉각	-10849
▁등지에서	-10850
▁프로그램이	-10851
.5%	-10852
▁수업	-10853
▁일요일	-10854
▁자체를	-10855
변이	-10856
▁김진	-10857
▁쇼군	-10858
▁불이	-10859
▁산다	-10860
▁영동	-10861
▁온타리오	-10862
커스	-10863
▁수습	-10864
▁스쿨	-10865
▁유죄	-10866
▁증손	-10867
▁거기서	-10868
▁사고가	-10869
산면	-10870
치료	-10871
토시	-10872
▁쫓아	-10873
▁ISO	-10874
스파	-10875
▁국소	-10876
▁떠올	-10877
▁약물	-10878
화이다	-10879
▁10%	-10880
▁것인데	-10881
▁장군의	-10882
노가	-10883
▁61	-10884
▁st	-10885
▁이의	-10886
▁조명	-10887
▁가나가와	-10888
측에	-10889
▁난징	-10890
▁믿고	-10891
▁아비	-10892
▁제자	-10893
▁규모는	-10894
▁마리오	-10895
▁불리게	-10896
▁스튜어	-10897
▁슬로베	-10898
▁전라도	-10899
▁부문에서	-10900
▁톨	-10901
▁아름다	-10902
▁아사히	-10903
포트	-10904
희가	-10905
▁결코	-10906
▁다항	-10907
▁밀어	-10908
▁부딪	-10909
▁용어를	-10910
▁복귀하였다	-10911
▁뜨거운	-10912
▁닭	-10913
▁통행	-10914
▁소속된	-10915
▁우주의	-10916
▁차원에서	-10917
▁선언하였다	-10918
▁오타	-10919
▁전도	-10920
▁다양하다	-10921
월드	-10922
▁봉안	-10923
▁기록해	-10924
▁사람과	-10925
구나	-10926
욕을	-10927
우드	-10928
▁김수	-10929
▁조달	-10930
▁뛰어나	-10931
림은	-10932
철의	-10933
-16	-10934
▁시외	-10935
▁제압	-10936
▁초등	-10937
시즌을	-10938
▁급제하여	-10939
▁얹	-10940
가스	-10941
▁김기	-10942
▁보일	-10943
프에서	-10944
▁이유를	-10945
▁관할하는	-10946
널티	-10947
님을	-10948
액은	-10949
▁DS	-10950
▁이룬	-10951
▁RNA	-10952
▁요청을	-10953
프로그램	-10954
-7	-10955
OP	-10956
▁맏	-10957
항의	-10958
▁구출	-10959
▁저택	-10960
▁정렬	-10961
▁측의	-10962
▁데뷔하였고	-10963
▁엄격한	-10964
▁사이타마	-10965
네가	-10966
올로	-10967
_11	-10968
▁나쁜	-10969
▁대피	-10970
▁후궁	-10971
라에서	-10972
▁관현악	-10973
▁민사	-10974
▁관직을	-10975
▁교황의	-10976
▁엿	-10977
▁아는	-10978
▁흥선	-10979
▁모르는	-10980
▁아니라고	-10981
축을	-10982
▁복제	-10983
▁시키	-10984
▁게이트	-10985
▁국방부	-10986
▁바티칸	-10987
▁성격이	-10988
▁안에는	-10989
▁지구와	-10990
▁과거에는	-10991
▁됐	-10992
▁고수	-10993
▁시계	-10994
▁비로소	-10995
▁소설가	-10996
▁휴스턴	-10997
▁승격되었다	-10998
액의	-10999
▁이라	-11000
▁주류	-11001
▁엽	-11002
▁횟	-11003
학교의	-11004
▁나오지	-11005
▁할머니	-11006
▁경우에도	-11007
▁최적	-11008
▁135	-11009
▁있었을	-11010
▁그리스어	-11011
▁지휘하는	-11012
ES	-11013
회담	-11014
▁예배	-11015
▁홈구	-11016
▁종류가	-11017
▁조선일보	-11018
▁얀	-11019
▁초연	-11020
▁만나는	-11021
▁부분의	-11022
▁여부를	-11023
▁시내버스	-11024
▁에디	-11025
▁여성이	-11026
▁갈릴	-11027
▁한성부	-11028
▁기업이다	-11029
▁이름에서	-11030
캐롤라이나	-11031
자스	-11032
▁궁극	-11033
▁상상	-11034
거리를	-11035
▁가지며	-11036
▁않으나	-11037
▁출전한	-11038
▁대학교에	-11039
PG	-11040
지휘	-11041
▁석조	-11042
▁순회	-11043
▁가리키	-11044
사우루스	-11045
▁일러	-11046
▁강수량은	-11047
퍼는	-11048
▁축제	-11049
▁미나미	-11050
▁테이블	-11051
▁루스	-11052
▁불어	-11053
▁아랫	-11054
▁것보다	-11055
▁세상에	-11056
▁키프로	-11057
▁오하이오	-11058
▁이야기는	-11059
점인	-11060
주기	-11061
▁인문	-11062
▁타카	-11063
슈타인	-11064
▁계속되었다	-11065
▁닌텐도	-11066
▁인근의	-11067
돌을	-11068
▁구할	-11069
▁넣은	-11070
▁미루	-11071
▁신임	-11072
▁신한	-11073
▁초과	-11074
▁전체에	-11075
▁팀으로	-11076
-17	-11077
▁상용	-11078
▁입자	-11079
▁최하	-11080
▁Con	-11081
러를	-11082
▁진도	-11083
협회는	-11084
▁360	-11085
▁다룬다	-11086
▁속도는	-11087
▁평균자책	-11088
약성	-11089
▁FM	-11090
▁일명	-11091
▁일이다	-11092
▁주도로	-11093
▁1890	-11094
▁동아일보	-11095
▁움직임을	-11096
누엘	-11097
▁아인	-11098
▁플랑	-11099
겼으며	-11100
암으로	-11101
▁부동산	-11102
ome	-11103
▁뒤집	-11104
▁안드레	-11105
야만	-11106
▁면적	-11107
▁부의	-11108
▁느낌을	-11109
▁직전에	-11110
▁표현을	-11111
▁주민들이	-11112
▁에스토니아	-11113
IM	-11114
강이	-11115
비나	-11116
-12	-11117
▁돌고	-11118
▁인생	-11119
▁속하며	-11120
▁철도가	-11121
▁대학교는	-11122
▁생각한다	-11123
▁방송되었다	-11124
극장	-11125
기나	-11126
판과	-11127
당이다	-11128
라이어	-11129
마뱀붙	-11130
▁웨일스	-11131
▁아버지를	-11132
나우	-11133
▁간호	-11134
렸는데	-11135
▁민족의	-11136
▁버전의	-11137
▁시장에	-11138
▁물러났다	-11139
▁매입	-11140
▁신념	-11141
▁오라	-11142
▁이식	-11143
▁한나라당	-11144
▁뉘	-11145
▁모친	-11146
▁증권	-11147
▁책의	-11148
▁평택	-11149
▁결성된	-11150
▁관리를	-11151
▁가도	-11152
▁했을	-11153
▁승부차	-11154
▁방식이다	-11155
▁깎	-11156
▁멋	-11157
위해	-11158
▁서초	-11159
▁옹립	-11160
위원장	-11161
▁싱글로	-11162
▁이론의	-11163
▁주장은	-11164
▁런던에서	-11165
▁회사이다	-11166
서울	-11167
▁오리콘	-11168
▁전통을	-11169
측은	-11170
카타	-11171
▁말의	-11172
▁존속	-11173
물질	-11174
브의	-11175
악한	-11176
허가	-11177
▁띠고	-11178
▁부부	-11179
▁비유	-11180
▁산소	-11181
▁정도였다	-11182
값을	-11183
▁매달	-11184
▁투표를	-11185
▁알려져있다	-11186
▁바꾼	-11187
▁비평	-11188
있었다	-11189
▁베트남의	-11190
▁가톨릭교회	-11191
▁가짜	-11192
▁쏟아	-11193
까지만	-11194
▁별명을	-11195
▁원인은	-11196
ha	-11197
글리	-11198
시노	-11199
▁낭만	-11200
▁배구	-11201
가들은	-11202
▁모델이	-11203
▁블랙홀	-11204
▁트라이	-11205
▁디자인을	-11206
▁스톡	-11207
▁연꽃	-11208
▁왕복	-11209
▁재무	-11210
▁평창	-11211
▁남쪽의	-11212
▁분명히	-11213
▁트랜스	-11214
▁기록했고	-11215
▁스스로를	-11216
신도	-11217
▁상원	-11218
▁케네	-11219
▁말기에	-11220
▁존재가	-11221
▁적극적인	-11222
▁그리스도의	-11223
▁노리	-11224
▁발트	-11225
동이다	-11226
주의가	-11227
프스	-11228
▁국립공	-11229
▁배우로	-11230
▁어려워	-11231
▁잃어버	-11232
▁지휘관	-11233
위원회를	-11234
▁이집트의	-11235
▁프랑크푸	-11236
라톱	-11237
열에	-11238
▁수동	-11239
▁간단히	-11240
▁본인의	-11241
▁이어진다	-11242
천여	-11243
▁진급	-11244
베트남	-11245
▁언어의	-11246
▁76	-11247
▁감행	-11248
▁스리	-11249
▁쓰기	-11250
불교의	-11251
▁애틀랜	-11252
▁달성했다	-11253
▁어머니의	-11254
이후	-11255
▁PS	-11256
▁명성	-11257
▁물건	-11258
층석탑	-11259
▁공격에	-11260
링을	-11261
백과	-11262
▁대거	-11263
▁딸인	-11264
▁말씀	-11265
▁사자	-11266
▁재혼	-11267
▁폭넓	-11268
▁독일이	-11269
반은	-11270
▁on	-11271
▁나눈	-11272
▁냉각	-11273
게이머	-11274
사업을	-11275
▁일리노	-11276
EN	-11277
영과	-11278
▁우울	-11279
▁비판이	-11280
회의에서	-11281
▁어머니가	-11282
▁타이틀곡	-11283
_15	-11284
▁양호	-11285
▁주가	-11286
루미늄	-11287
▁수학자	-11288
▁요구를	-11289
OV	-11290
▁합작	-11291
▁데이터베이스	-11292
ust	-11293
▁시범	-11294
▁국내외	-11295
▁보호를	-11296
▁추기경	-11297
츠를	-11298
hPa	-11299
▁밀집	-11300
▁분당	-11301
▁붙인	-11302
구성	-11303
소득	-11304
운트	-11305
▁구의	-11306
▁던져	-11307
▁종로구	-11308
▁회의를	-11309
▁꽃은	-11310
▁안보	-11311
▁축하	-11312
▁오프닝	-11313
▁적합한	-11314
▁향하는	-11315
▁황제로	-11316
▁들어간다	-11317
▁카자흐스탄	-11318
무는	-11319
▁변수	-11320
▁환경에	-11321
▁지방자치	-11322
▁추측된다	-11323
사지	-11324
▁마약	-11325
▁존경	-11326
▁많으며	-11327
▁에이스	-11328
▁장면을	-11329
고와	-11330
▁노태	-11331
▁불편	-11332
▁1898	-11333
풍속	-11334
▁띤다	-11335
▁뻗어	-11336
▁이벤트	-11337
절한	-11338
▁석가	-11339
▁이노	-11340
▁커널	-11341
적이지	-11342
▁관련한	-11343
▁기술은	-11344
▁이어진	-11345
▁저명한	-11346
▁한계	-11347
버렸다	-11348
▁최악의	-11349
▁설명했다	-11350
▁채워	-11351
▁2-1	-11352
▁마음이	-11353
▁Se	-11354
▁가량	-11355
▁초록	-11356
▁컨셉	-11357
▁김일성	-11358
▁연구소	-11359
▁협상을	-11360
▁존재하고	-11361
▁정사	-11362
라이트	-11363
레스는	-11364
▁헌법재판	-11365
상규	-11366
▁분화	-11367
▁성취	-11368
▁순교	-11369
▁애덤	-11370
▁시기를	-11371
루에	-11372
시즘	-11373
▁날에	-11374
▁중독	-11375
▁패키	-11376
▁승강장이	-11377
클랜드	-11378
▁Pro	-11379
▁가지가	-11380
결정	-11381
표는	-11382
▁목을	-11383
▁방패	-11384
▁상트	-11385
▁인플	-11386
▁헤드	-11387
▁진행되고	-11388
참모	-11389
▁대웅	-11390
▁하우	-11391
지는데	-11392
▁물고기	-11393
▁변화에	-11394
▁상원의	-11395
▁이용한다	-11396
▁인정하고	-11397
뉴스	-11398
대손	-11399
풍이	-11400
▁기사를	-11401
▁나가는	-11402
▁셸	-11403
가족	-11404
디언	-11405
일으	-11406
▁2》	-11407
▁알라	-11408
▁정밀	-11409
▁차이는	-11410
멘트	-11411
저를	-11412
코쿠	-11413
▁직결	-11414
▁헤라	-11415
▁회계	-11416
▁체코슬로	-11417
기준	-11418
▁동명	-11419
▁두는	-11420
▁빌려	-11421
▁축출	-11422
▁바오로	-11423
▁엔진은	-11424
▁메시지를	-11425
▁의미에서	-11426
▁결정되었다	-11427
▁아일랜드의	-11428
▁더불어민주당	-11429
pp	-11430
위인	-11431
▁김규	-11432
▁만남	-11433
▁문법	-11434
▁미노	-11435
▁별은	-11436
▁상처	-11437
▁제국을	-11438
발이	-11439
▁지능	-11440
▁정신을	-11441
▁리치	-11442
았다고	-11443
자라고	-11444
▁128	-11445
▁있기도	-11446
▁장거리	-11447
▁뉴저	-11448
층으로	-11449
▁아래에서	-11450
테르부르크	-11451
▁신설되었다	-11452
채널	-11453
▁이윤	-11454
▁정조	-11455
▁중기	-11456
주자	-11457
▁버려	-11458
▁피신	-11459
▁교육의	-11460
▁제도가	-11461
▁1899	-11462
▁프로리그	-11463
▁해상에서	-11464
작전	-11465
쟁이	-11466
▁엄격	-11467
모에	-11468
▁바퀴	-11469
▁자문	-11470
▁지냈고	-11471
▁부분으로	-11472
▁가죽	-11473
▁광둥	-11474
▁따온	-11475
▁차량이	-11476
▁패배를	-11477
▁주민들은	-11478
거를	-11479
병에	-11480
:00	-11481
하자는	-11482
▁독일과	-11483
▁원수	-11484
▁아열대	-11485
▁선정한	-11486
▁스티브	-11487
▁옳	-11488
▁문장	-11489
▁지주	-11490
▁블로그	-11491
▁장군이	-11492
iz	-11493
마치	-11494
정원	-11495
▁딸로	-11496
▁천도	-11497
바이트	-11498
▁그다지	-11499
▁통틀어	-11500
▁확실히	-11501
▁중단되었다	-11502
분석	-11503
▁봉쇄	-11504
▁소니	-11505
▁해밀	-11506
▁노동조합	-11507
▁역임하고	-11508
▁고등학교를	-11509
▁강도	-11510
▁당일	-11511
▁백색	-11512
▁법인	-11513
▁조리	-11514
▁춘천	-11515
AS	-11516
봉은	-11517
▁제곱	-11518
법이다	-11519
▁사이드	-11520
▁왕국을	-11521
▁회장을	-11522
▁강점기의	-11523
▁벌어졌다	-11524
▁민영	-11525
▁업체	-11526
▁에미	-11527
▁짙은	-11528
▁한미	-11529
▁물질의	-11530
▁불러일으	-11531
더니	-11532
반이	-11533
감으로	-11534
▁용도로	-11535
▁설명한다	-11536
▁96	-11537
▁이가	-11538
▁적혀	-11539
사들이	-11540
▁나폴리	-11541
▁태양을	-11542
▁위치하는	-11543
▁캄보디아	-11544
월과	-11545
▁경신	-11546
▁나올	-11547
▁우편	-11548
▁입성	-11549
▁화석	-11550
▁독일어	-11551
▁차량을	-11552
▁구분된다	-11553
▁정부에서	-11554
대학교에서	-11555
량과	-11556
레아	-11557
변의	-11558
인간	-11559
▁난다	-11560
▁불확	-11561
▁공화당	-11562
▁대표적	-11563
▁베네딕	-11564
▁칼리지	-11565
▁지정되었다가	-11566
▁손꼽	-11567
▁호위	-11568
▁개념이	-11569
불을	-11570
파르	-11571
▁부호	-11572
▁상수	-11573
▁아부	-11574
자들에	-11575
커니즘	-11576
▁가까워	-11577
▁미국을	-11578
▁시위를	-11579
▁전투기	-11580
▁나머지는	-11581
▁프로젝트를	-11582
▁냄	-11583
월한	-11584
후가	-11585
▁시즈	-11586
▁부유한	-11587
▁아이치	-11588
▁연고지로	-11589
▁벌인	-11590
orld	-11591
▁50%	-11592
▁무료로	-11593
▁산하에	-11594
▁차량은	-11595
▁평범한	-11596
▁사원	-11597
▁카롤	-11598
▁호의	-11599
▁가마쿠라	-11600
▁자격으로	-11601
FM	-11602
▁어워	-11603
▁노란색	-11604
▁이유가	-11605
즈로	-11606
▁디오	-11607
▁야쿠	-11608
▁표방	-11609
▁버렸다	-11610
▁중국에	-11611
▁행사를	-11612
로부터의	-11613
▁비례대표	-11614
▁결혼하였다	-11615
▁때인	-11616
▁쓰지	-11617
▁이끈	-11618
▁일방	-11619
▁되지만	-11620
▁위치는	-11621
▁프랑스에	-11622
▁형태이다	-11623
▁프로게이머	-11624
행에	-11625
▁술을	-11626
▁전속	-11627
▁마이크	-11628
▁육군의	-11629
▁선수들을	-11630
▁탐지	-11631
▁본사를	-11632
▁수상한	-11633
▁일대를	-11634
▁개발하고	-11635
▁결론	-11636
▁달이	-11637
▁얻지	-11638
▁평일	-11639
▁획득한	-11640
▁1902	-11641
제작	-11642
iki	-11643
사령부	-11644
▁기자회	-11645
▁선거는	-11646
▁스타일	-11647
!》	-11648
였을	-11649
▁심의	-11650
▁현재에	-11651
두를	-11652
▁메타	-11653
▁런던의	-11654
▁아미노	-11655
▁알루미늄	-11656
여성	-11657
▁농림	-11658
▁부서	-11659
▁입원	-11660
▁총칭	-11661
▁중의원	-11662
대학교의	-11663
▁그들에게	-11664
TS	-11665
▁뭉	-11666
▁왓	-11667
대책	-11668
품이	-11669
▁군이	-11670
▁정해	-11671
▁프톨레	-11672
▁다운로드	-11673
▁자유로운	-11674
▁67	-11675
▁단기	-11676
▁지형	-11677
▁버전이	-11678
▁중국어	-11679
▁정해진	-11680
▁조약에	-11681
▁포르투갈의	-11682
리조	-11683
▁만일	-11684
▁문자를	-11685
OL	-11686
ian	-11687
▁군단	-11688
▁봉건	-11689
▁제노	-11690
▁카를로	-11691
▁역사적인	-11692
유적	-11693
줬다	-11694
▁꼭짓	-11695
▁재현	-11696
▁항소	-11697
파인	-11698
▁골프	-11699
▁빛이	-11700
▁아홉	-11701
▁이진	-11702
▁병으로	-11703
▁우승한	-11704
▁중앙위원회	-11705
국어	-11706
▁승계	-11707
▁여신	-11708
교육을	-11709
DS	-11710
린과	-11711
반에	-11712
술의	-11713
협의	-11714
▁사면	-11715
▁101	-11716
▁설치한	-11717
▁일대에	-11718
▁시칠리아	-11719
▁형성한다	-11720
강과	-11721
후는	-11722
▁라파	-11723
▁문명	-11724
▁상장	-11725
▁어른	-11726
로니	-11727
▁자를	-11728
▁밖에도	-11729
▁보유한	-11730
▁자회사	-11731
▁기독교의	-11732
▁떨어지는	-11733
▁맑	-11734
디나	-11735
제한	-11736
▁실전	-11737
▁이남	-11738
어지고	-11739
▁가벼운	-11740
▁게르만	-11741
▁목표는	-11742
▁코드를	-11743
▁파일을	-11744
▁개원	-11745
▁고체	-11746
▁레바	-11747
▁마블	-11748
▁연쇄	-11749
▁용의	-11750
▁위험한	-11751
▁끊임없이	-11752
▁닦	-11753
▁팜	-11754
▁베니	-11755
▁해소	-11756
▁이론에	-11757
▁자유주의	-11758
골로	-11759
▁상류	-11760
▁선과	-11761
▁왕을	-11762
▁제트	-11763
▁척추	-11764
▁토니	-11765
렸다고	-11766
▁것임을	-11767
▁후보는	-11768
AL	-11769
감한	-11770
ran	-11771
나무는	-11772
▁내용으로	-11773
▁시리즈를	-11774
▁굿	-11775
▁먹을	-11776
운동의	-11777
▁밝히고	-11778
▁알코올	-11779
▁어려서	-11780
▁취하고	-11781
께서	-11782
도어	-11783
색과	-11784
하로	-11785
▁규격	-11786
▁닥터	-11787
▁문서를	-11788
▁선수는	-11789
▁이루며	-11790
운을	-11791
▁사간	-11792
▁수련	-11793
▁기초를	-11794
▁왕국은	-11795
▁유래된	-11796
▁기각	-11797
▁선사	-11798
▁최연	-11799
▁필사	-11800
▁흔한	-11801
▁베드로	-11802
▁부근에	-11803
▁올랐고	-11804
▁평가된다	-11805
▁기아	-11806
검찰청	-11807
들과는	-11808
▁그룹은	-11809
▁민족주의	-11810
▁알려지게	-11811
▁환경에서	-11812
▁딘	-11813
무가	-11814
▁곳의	-11815
▁물러나	-11816
▁불리고	-11817
▁제목의	-11818
▁타격을	-11819
▁피하기	-11820
코와	-11821
▁담배	-11822
▁학교의	-11823
▁아버지인	-11824
소방	-11825
해온	-11826
▁거제	-11827
▁고백	-11828
▁산림	-11829
▁양이	-11830
양으로	-11831
▁교육과	-11832
▁계획이다	-11833
일드	-11834
~20	-11835
▁기간을	-11836
▁유학을	-11837
▁이라고	-11838
▁재능을	-11839
▁출시한	-11840
▁시장에서	-11841
어요	-11842
▁마음에	-11843
▁고구려의	-11844
▁나열	-11845
▁디자	-11846
▁연령	-11847
▁자택	-11848
▁적지	-11849
▁갈등을	-11850
▁제도는	-11851
▁독립운동가	-11852
▁원리	-11853
▁페어	-11854
전이다	-11855
▁경찰에	-11856
▁달한다	-11857
▁루이지	-11858
▁전력을	-11859
▁코스타	-11860
▁전체적인	-11861
▁정치인으로	-11862
코드	-11863
▁CF	-11864
▁아바	-11865
▁오바	-11866
스터는	-11867
▁연결된다	-11868
HE	-11869
근은	-11870
아들	-11871
▁삼촌	-11872
해주는	-11873
▁카리브	-11874
▁대통령으로	-11875
교수	-11876
물인	-11877
전선	-11878
훈장	-11879
▁성주	-11880
▁138	-11881
▁유지하는	-11882
▁처음부터	-11883
금과	-11884
ber	-11885
▁서정	-11886
▁위장	-11887
▁응원	-11888
▁잡혀	-11889
▁해수	-11890
▁아래는	-11891
▁용어로	-11892
▁기록하면서	-11893
▁프로레슬링	-11894
매를	-11895
터스	-11896
ire	-11897
▁취재	-11898
▁남기고	-11899
▁단어는	-11900
▁무대를	-11901
▁시절의	-11902
▁사망하자	-11903
▁헝가리의	-11904
▁난민	-11905
▁낸다	-11906
▁모서	-11907
▁불상	-11908
▁조언	-11909
▁형법	-11910
프랑스	-11911
▁도미니	-11912
▁도카이	-11913
▁벼슬을	-11914
▁SP	-11915
▁몸이	-11916
▁처녀	-11917
▁테니스	-11918
▁닐	-11919
르에	-11920
▁대합	-11921
▁차이로	-11922
박사	-11923
▁성분	-11924
▁2.5	-11925
▁기존에	-11926
▁삼각형	-11927
세기부터	-11928
▁임시정부	-11929
▁맵	-11930
칸의	-11931
팀의	-11932
한은	-11933
▁고민	-11934
▁슈팅	-11935
▁것들이	-11936
▁경상도	-11937
▁기초로	-11938
▁접하며	-11939
▁진행하고	-11940
▁플레이어는	-11941
미쓰	-11942
▁로열	-11943
▁야당	-11944
▁지각	-11945
▁트루	-11946
▁협약	-11947
정책을	-11948
천으로	-11949
▁다니엘	-11950
▁없었기	-11951
▁즉위한	-11952
▁1901	-11953
ph	-11954
웠고	-11955
▁담아	-11956
▁둥글	-11957
▁축적	-11958
베르토	-11959
▁스피드	-11960
▁줄무늬	-11961
▁73	-11962
▁모용	-11963
▁무상	-11964
▁씨의	-11965
▁잡은	-11966
자라는	-11967
▁출신인	-11968
과학기술	-11969
▁독립적인	-11970
감은	-11971
과가	-11972
▁발현	-11973
▁침투	-11974
▁카타	-11975
▁더욱이	-11976
▁발견하였다	-11977
▁날카	-11978
▁디렉	-11979
▁사살	-11980
▁시점	-11981
하우스	-11982
▁언어는	-11983
▁조정에	-11984
▁토요일	-11985
아일랜드	-11986
▁그렇지만	-11987
▁일리노이	-11988
사나	-11989
▁스폰	-11990
▁옥스	-11991
▁노르웨이의	-11992
▁・	-11993
돌은	-11994
▁입각	-11995
▁잭슨	-11996
▁안으로	-11997
▁국제적인	-11998
것을	-11999
기게	-12000
릴라	-12001
▁강에	-12002
▁공부를	-12003
▁건축물이다	-12004
커의	-12005
▁신선	-12006
▁죽이	-12007
스카야	-12008
▁살았던	-12009
▁도입하였다	-12010
ide	-12011
▁남원	-12012
▁오를	-12013
▁패한	-12014
문에서	-12015
바이잔	-12016
으려고	-12017
▁지나면서	-12018
루션	-12019
수용	-12020
▁등용	-12021
▁밝힌	-12022
▁직면	-12023
행으로	-12024
▁게임이	-12025
▁이루어지는	-12026
▁옴	-12027
덕션	-12028
라기	-12029
▁서유럽	-12030
인한	-12031
▁사람도	-12032
▁섬이다	-12033
▁음악에	-12034
▁핀란드의	-12035
량에	-12036
▁래퍼	-12037
▁리우	-12038
▁합창	-12039
▁따른다	-12040
▁발언을	-12041
두로	-12042
예프	-12043
▁교역	-12044
▁정보가	-12045
▁결혼하여	-12046
▁톤	-12047
본의	-12048
팀을	-12049
ace	-12050
▁거울	-12051
▁아무도	-12052
▁프랭크	-12053
지능	-12054
▁종착	-12055
▁죽였다	-12056
제르바이잔	-12057
▁주어졌다고	-12058
심은	-12059
▁AK	-12060
▁부가	-12061
▁소지	-12062
▁군대에	-12063
▁그려진	-12064
▁뚜렷한	-12065
▁잡았다	-12066
▁목소리를	-12067
▁성에	-12068
▁신중	-12069
▁즐겨	-12070
▁코어	-12071
▁레전드	-12072
▁전역에	-12073
▁페르난	-12074
▁1884	-12075
▁설명하는	-12076
피의	-12077
▁뒷받침	-12078
▁드물게	-12079
▁터키의	-12080
▁사회에서	-12081
▁글리	-12082
▁누가	-12083
▁컬러	-12084
르에서	-12085
학적인	-12086
▁3.1	-12087
▁완벽한	-12088
▁공익	-12089
▁마루	-12090
면에는	-12091
▁제주도	-12092
▁존재할	-12093
▁파이어	-12094
▁림	-12095
▁얼굴을	-12096
▁차량의	-12097
▁차례의	-12098
집이	-12099
플렉	-12100
▁김경	-12101
▁유년	-12102
▁춘추	-12103
▁꼭대	-12104
▁쓰촨	-12105
▁엔딩	-12106
▁인격	-12107
▁한층	-12108
▁때에도	-12109
▁역까지	-12110
▁표면에	-12111
▁1903	-12112
▁시리즈에서	-12113
아파	-12114
▁높게	-12115
▁최후	-12116
▁리그를	-12117
▁할아버지	-12118
▁쌓은	-12119
▁우호	-12120
▁편곡	-12121
사령관	-12122
▁게이지	-12123
▁기하여	-12124
▁잠수함	-12125
버린	-12126
▁공모	-12127
▁세자	-12128
▁당연히	-12129
▁프톨레마이	-12130
▁수확	-12131
▁출산	-12132
▁해의	-12133
위이다	-12134
학교는	-12135
내며	-12136
▁맞은	-12137
▁연금	-12138
▁호세	-12139
▁쓰시마	-12140
▁역사에	-12141
▁페널티	-12142
▁자신들이	-12143
▁만족시키는	-12144
▁슬로바키아	-12145
▁NC	-12146
▁유저	-12147
루스는	-12148
▁넘어가	-12149
▁실질적으로	-12150
▁》	-12151
그러	-12152
길이	-12153
사리	-12154
열차	-12155
▁보헤	-12156
▁주행	-12157
▁케임	-12158
▁아나키	-12159
▁일하는	-12160
▁전두환	-12161
▁지키는	-12162
▁쳐들어	-12163
▁학문을	-12164
▁아리스토	-12165
설은	-12166
순은	-12167
▁등극	-12168
기독교	-12169
월에서	-12170
▁사고를	-12171
▁온도가	-12172
▁이때부터	-12173
로이	-12174
테는	-12175
테면	-12176
▁각자	-12177
▁강연	-12178
▁산의	-12179
▁성사	-12180
▁숫자	-12181
▁여운	-12182
▁이관	-12183
사단은	-12184
▁통일신라	-12185
▁아르헨티나의	-12186
당해	-12187
com	-12188
▁신시	-12189
▁주체	-12190
시키지	-12191
호선과	-12192
▁같은해	-12193
▁광저우	-12194
▁소행성	-12195
▁올리고	-12196
▁있는지	-12197
▁블라디미르	-12198
▁프로그램에	-12199
▁선종	-12200
▁응시	-12201
누스는	-12202
▁경기의	-12203
▁일으킬	-12204
▁주어진다	-12205
-18	-12206
▁에콰	-12207
▁중일	-12208
▁손으로	-12209
▁가져왔다	-12210
소녀	-12211
▁기슭	-12212
▁초신	-12213
▁협동	-12214
▁견해를	-12215
▁의원을	-12216
▁테일러	-12217
▁프레스	-12218
▁킨	-12219
▁느꼈	-12220
▁싶은	-12221
▁20%	-12222
▁압력을	-12223
▁가고시마	-12224
무역	-12225
준이	-12226
▁모형	-12227
▁주위	-12228
▁고통을	-12229
▁조선에	-12230
▁피해가	-12231
▁중요성을	-12232
버리	-12233
야에	-12234
▁부지	-12235
▁1-0	-12236
▁148	-12237
▁갈수록	-12238
▁성공회	-12239
▁얽	-12240
▁까닭	-12241
▁년에	-12242
▁누르	-12243
▁선물	-12244
▁소매	-12245
▁정무	-12246
하자면	-12247
▁니콜라	-12248
▁함수의	-12249
근의	-12250
받게	-12251
생은	-12252
조한	-12253
▁DC	-12254
▁거뒀	-12255
▁싸워	-12256
▁매카트	-12257
▁미시간	-12258
▁문화체육관광부	-12259
▁옌	-12260
고리	-12261
▁모은	-12262
▁이경	-12263
▁파스	-12264
▁선생의	-12265
▁시베리아	-12266
▁표현하는	-12267
마로	-12268
▁HT	-12269
▁생략	-12270
▁세속	-12271
▁중종	-12272
▁집계	-12273
위원을	-12274
▁성장을	-12275
▁영화가	-12276
▁점령한	-12277
▁도시철도	-12278
▁로이	-12279
▁본부	-12280
▁정도를	-12281
▁지역구	-12282
▁81	-12283
▁여진	-12284
▁교향곡	-12285
벽을	-12286
왔던	-12287
▁AR	-12288
▁청소	-12289
심에서	-12290
▁자료가	-12291
▁이를테면	-12292
▁특징으로	-12293
▁중화민국의	-12294
나미	-12295
머는	-12296
▁오오	-12297
▁왕세	-12298
▁주오	-12299
▁포병	-12300
▁흥선대원	-12301
주어	-12302
▁설립되었으며	-12303
▁넬	-12304
▁펌	-12305
▁00	-12306
▁북구	-12307
▁들어갈	-12308
파크	-12309
▁죽어	-12310
▁청원	-12311
▁대가로	-12312
▁역사의	-12313
▁한국은	-12314
▁근무했다	-12315
▁결정하였다	-12316
▁대치	-12317
▁시골	-12318
▁뮤지션	-12319
▁새겨진	-12320
▁없어서	-12321
▁받았지만	-12322
도비	-12323
방위	-12324
ies	-12325
▁퀘벡	-12326
▁호조	-12327
나가는	-12328
▁모양이	-12329
▁올림픽의	-12330
▁정의한다	-12331
▁펠리	-12332
계약을	-12333
▁고유의	-12334
▁동생인	-12335
▁방문한	-12336
▁성능을	-12337
▁심리학	-12338
대학교는	-12339
들에게는	-12340
ime	-12341
▁카디	-12342
▁새로이	-12343
▁시대부터	-12344
▁크리스마스	-12345
비서	-12346
▁쇼트	-12347
▁종족	-12348
▁전하는	-12349
▁제국에	-12350
▁주장하며	-12351
GC	-12352
▁더해	-12353
▁두께	-12354
▁브뤼	-12355
▁선배	-12356
▁앙리	-12357
▁효고	-12358
▁기회가	-12359
▁삿포로	-12360
▁인상을	-12361
▁출신이며	-12362
대륙	-12363
마일	-12364
순위	-12365
▁네팔	-12366
▁사토	-12367
▁창의	-12368
▁대전이	-12369
▁담당했다	-12370
네시	-12371
들여	-12372
락이	-12373
설에	-12374
▁바빌	-12375
▁보게	-12376
▁암시	-12377
▁품고	-12378
루에서	-12379
▁공간이	-12380
▁의미는	-12381
▁조선로동당	-12382
▁맞붙	-12383
▁샘플	-12384
▁애비	-12385
▁지름	-12386
▁지점	-12387
▁350	-12388
▁사이버	-12389
▁중반에	-12390
▁팀에서	-12391
▁비밀리에	-12392
▁쇄	-12393
▁단축	-12394
▁뒤에도	-12395
▁총리가	-12396
▁부분에서	-12397
▁프랑스가	-12398
가요	-12399
공무	-12400
▁물어	-12401
▁중대	-12402
▁다니는	-12403
▁입장에서	-12404
해양	-12405
▁그러다가	-12406
▁총대주교	-12407
▁건설되었다	-12408
두에	-12409
▁문예	-12410
▁양국	-12411
▁충주	-12412
▁하마	-12413
▁이곳을	-12414
▁결정하는	-12415
▁드러났다	-12416
▁클럽이다	-12417
개와	-12418
▁리만	-12419
▁석탑	-12420
▁충남	-12421
▁태평	-12422
▁가족은	-12423
▁경계로	-12424
▁질량이	-12425
▁스위스의	-12426
▁플라스틱	-12427
▁감안	-12428
▁설도	-12429
▁철회	-12430
▁카스	-12431
공으로	-12432
▁작용을	-12433
▁대한민국과	-12434
▁몫	-12435
구르	-12436
▁미디	-12437
▁유교	-12438
▁송나라	-12439
▁결정된다	-12440
블리	-12441
▁이케	-12442
프라이	-12443
▁과정이	-12444
▁산하의	-12445
▁손가락	-12446
▁고려시대	-12447
▁머물렀다	-12448
빈의	-12449
추는	-12450
▁대가	-12451
▁하차	-12452
것으로	-12453
▁우즈베	-12454
▁확실한	-12455
▁위원회는	-12456
암은	-12457
▁네오	-12458
▁로즈	-12459
▁중산	-12460
스트리	-12461
▁소송을	-12462
▁정치를	-12463
왕조	-12464
▁견제	-12465
▁균형	-12466
▁사절	-12467
▁영등	-12468
호선이	-12469
▁노선의	-12470
▁백제의	-12471
▁비율은	-12472
총장	-12473
▁완화	-12474
▁일체	-12475
▁트래	-12476
▁승강장을	-12477
▁운행한다	-12478
방울	-12479
▁30%	-12480
▁비율이	-12481
▁1897	-12482
▁몸길이는	-12483
통은	-12484
are	-12485
man	-12486
▁분비	-12487
▁호응	-12488
파이어	-12489
▁나중에는	-12490
▁대학교를	-12491
▁때문이라고	-12492
▁에티오피아	-12493
말라	-12494
집에	-12495
품의	-12496
▁실망	-12497
▁점에	-12498
▁체류	-12499
▁라이언	-12500
▁문화가	-12501
▁정리한	-12502
▁해마다	-12503
▁르네상스	-12504
▁프랑수아	-12505
탄의	-12506
lan	-12507
▁대학생	-12508
▁예술가	-12509
▁평가했다	-12510
무스	-12511
평화	-12512
▁비주	-12513
▁유동	-12514
▁재미	-12515
▁사례가	-12516
▁상태의	-12517
▁설치하여	-12518
▁아제르바이잔	-12519
할때	-12520
▁물의	-12521
▁배신	-12522
는지는	-12523
▁대회가	-12524
▁들어올	-12525
신경	-12526
원인	-12527
타니	-12528
▁민병	-12529
▁폭스	-12530
행위를	-12531
▁운영을	-12532
▁개가	-12533
▁문인	-12534
▁아기	-12535
▁바르샤	-12536
국장	-12537
▁놀이	-12538
▁후안	-12539
▁제치고	-12540
▁구마모토	-12541
</	-12542
시나	-12543
▁74	-12544
▁그후	-12545
▁미즈	-12546
▁스칼	-12547
▁짐작	-12548
▁딸이다	-12549
▁도요토미	-12550
▁프로듀싱	-12551
▁취임하였다	-12552
표가	-12553
푸아	-12554
올림픽	-12555
▁서울대	-12556
▁요새를	-12557
▁게임으로	-12558
내지	-12559
토와	-12560
▁본거	-12561
▁신축	-12562
▁전동	-12563
▁해당된다	-12564
nowiki	-12565
운의	-12566
▁정말	-12567
▁지녔	-12568
스트가	-12569
▁되어있다	-12570
▁차지하며	-12571
▁더글	-12572
▁랜드	-12573
▁마스	-12574
▁진을	-12575
▁니가타	-12576
▁뒤이어	-12577
▁승무원	-12578
▁음악은	-12579
▁포로로	-12580
페테르부르크	-12581
보건	-12582
▁김창	-12583
▁원을	-12584
▁장성	-12585
▁제작을	-12586
▁이탈리아에서	-12587
체제	-12588
▁점프	-12589
▁터뜨	-12590
왕후의	-12591
▁단어를	-12592
▁물건을	-12593
▁전반에	-12594
적으로도	-12595
▁공격하여	-12596
▁떨어졌다	-12597
▁설치하고	-12598
▁해결하기	-12599
▁솜	-12600
권도	-12601
랑을	-12602
운이	-12603
홀름	-12604
▁86	-12605
▁만성	-12606
▁아담	-12607
▁이북	-12608
▁중재	-12609
▁명이다	-12610
만과	-12611
전사	-12612
▁꽃이	-12613
▁윤보	-12614
법에서	-12615
▁자치구	-12616
▁유사하다	-12617
▁전역에서	-12618
che	-12619
▁깨끗	-12620
색이다	-12621
▁크기를	-12622
타우	-12623
▁교전	-12624
▁메소	-12625
▁수성	-12626
▁관련해	-12627
▁나란히	-12628
▁레바논	-12629
▁말하면	-12630
궁의	-12631
막을	-12632
for	-12633
▁종속	-12634
▁도시에	-12635
▁본인이	-12636
▁연구의	-12637
▁정권의	-12638
▁투수가	-12639
▁비판하였다	-12640
▁이루어지지	-12641
따라	-12642
▁과의	-12643
▁나섰	-12644
기록을	-12645
▁나가노	-12646
▁시즌에서	-12647
▁후임으로	-12648
발은	-12649
약한	-12650
▁땄다	-12651
▁발칸	-12652
▁번호	-12653
▁편에	-12654
▁구와	-12655
▁토르	-12656
▁플러	-12657
터미널	-12658
▁Sou	-12659
▁범위를	-12660
▁추가적인	-12661
▁경기장이다	-12662
ear	-12663
▁대책	-12664
▁화강	-12665
▁108	-12666
▁세력의	-12667
처는	-12668
-21	-12669
▁개종	-12670
▁극동	-12671
안에서	-12672
▁그래미	-12673
▁언급한	-12674
▁It	-12675
▁강서	-12676
▁북방	-12677
▁제프	-12678
▁컴퍼	-12679
▁게임에	-12680
▁국제적	-12681
▁실시하고	-12682
융합	-12683
_12	-12684
▁대두	-12685
▁동참	-12686
▁리틀	-12687
▁만세	-12688
▁무실	-12689
▁성이	-12690
▁피겨	-12691
서비스	-12692
여명의	-12693
▁더이상	-12694
▁작업에	-12695
:0	-12696
도바	-12697
디를	-12698
채는	-12699
▁구스타	-12700
▁영향이	-12701
▁드래프트에서	-12702
황이	-12703
▁국영	-12704
▁말미	-12705
▁신부	-12706
▁이차	-12707
▁키워	-12708
▁나타낸	-12709
▁바이오	-12710
▁센다이	-12711
▁둘러싸여	-12712
▁돌을	-12713
▁호출	-12714
▁결론을	-12715
▁지나는	-12716
▁지난날	-12717
직으로	-12718
▁보호하기	-12719
▁볼리비아	-12720
공격	-12721
터널	-12722
▁간토	-12723
▁발급	-12724
▁알을	-12725
▁충실	-12726
▁무조건	-12727
주지	-12728
▁넓게	-12729
▁배상	-12730
▁병을	-12731
▁케냐	-12732
▁서울의	-12733
▁전했다	-12734
▁평안남도	-12735
▁중앙아시아	-12736
함마	-12737
ory	-12738
▁덮여	-12739
▁산출	-12740
▁도입된	-12741
▁변화는	-12742
▁세워져	-12743
▁시에서	-12744
▁1860	-12745
▁정치적인	-12746
해로	-12747
▁기준을	-12748
▁예이다	-12749
▁원인을	-12750
▁페르디난	-12751
기사	-12752
▁가환	-12753
▁간신	-12754
▁값이	-12755
▁건담	-12756
▁사슬	-12757
▁어뢰	-12758
리스는	-12759
지역에	-12760
▁붙여진	-12761
▁영국에	-12762
▁지구를	-12763
▁하에서	-12764
셈부르크	-12765
▁69	-12766
▁돌입	-12767
▁성폭	-12768
▁웹툰	-12769
▁위와	-12770
▁정서	-12771
레이터	-12772
iver	-12773
▁생산을	-12774
▁노선이다	-12775
▁복귀했다	-12776
레타	-12777
컨대	-12778
▁걸린	-12779
▁용병	-12780
▁자국	-12781
▁중복	-12782
끄러운	-12783
▁마을에	-12784
▁브로드	-12785
▁미시시피	-12786
▁진행되는	-12787
▁스코틀랜드의	-12788
억원	-12789
츠키	-12790
하와	-12791
▁번에	-12792
▁세례	-12793
▁안치	-12794
▁열린다	-12795
▁예수의	-12796
TP	-12797
▁공손	-12798
▁낳은	-12799
▁떠오	-12800
▁아크	-12801
▁자오	-12802
▁정권이	-12803
▁휘하의	-12804
▁브라우저	-12805
간은	-12806
너가	-12807
빌딩	-12808
▁82	-12809
▁불명	-12810
▁뽑아	-12811
▁태극	-12812
▁테레	-12813
▁파나	-12814
▁내려가	-12815
▁창원시	-12816
▁대통령과	-12817
▁자이언츠	-12818
▁형성하고	-12819
▁임명되었고	-12820
▁루터	-12821
▁정은	-12822
▁부작용	-12823
▁수행할	-12824
▁점령하고	-12825
▁시작하였으며	-12826
요는	-12827
▁가동	-12828
▁괴롭	-12829
▁수료	-12830
▁연상	-12831
▁하부	-12832
판에서	-12833
▁실패한	-12834
무로	-12835
벌을	-12836
▁기증	-12837
▁입을	-12838
▁팔라	-12839
▁헤비	-12840
되므로	-12841
▁북아프리카	-12842
히메	-12843
품으로	-12844
▁사업에	-12845
▁여우주연	-12846
▁시작하면서	-12847
운다	-12848
▁달걀	-12849
▁박스	-12850
▁정립	-12851
▁지구에	-12852
에다	-12853
초는	-12854
▁안테	-12855
▁수익을	-12856
▁실시한	-12857
▁장군은	-12858
▁밭	-12859
그레	-12860
았기	-12861
▁맺은	-12862
▁양주	-12863
▁평정	-12864
▁환자	-12865
▁보다는	-12866
▁걱정	-12867
▁과일	-12868
▁권유	-12869
▁그랜	-12870
▁사범	-12871
▁자선	-12872
▁주장에	-12873
시켰으며	-12874
▁의미하며	-12875
▁붐	-12876
금지	-12877
▁배가	-12878
▁조조	-12879
▁진공	-12880
▁각본가	-12881
▁산업의	-12882
박쥐과에	-12883
▁기록으로	-12884
▁제기되었다	-12885
규는	-12886
▁무궁	-12887
받았고	-12888
▁각국의	-12889
▁연합군	-12890
▁정치에	-12891
▁아시안컵	-12892
▁시뮬레이션	-12893
▁상트페테르부르크	-12894
온을	-12895
▁왜곡	-12896
▁뉴욕의	-12897
▁진출한	-12898
▁트리플	-12899
▁불가능한	-12900
▁학생들의	-12901
▁씌	-12902
정당	-12903
평군	-12904
▁감리	-12905
▁카트	-12906
▁되었던	-12907
▁부대가	-12908
▁아틀레	-12909
▁청와대	-12910
▁수준으로	-12911
▁덤	-12912
나로	-12913
▁가볍	-12914
▁끝날	-12915
▁경제의	-12916
▁규정에	-12917
▁똑같은	-12918
▁아름답	-12919
▁하느님	-12920
커가	-12921
▁이준	-12922
▁밴드를	-12923
▁센고쿠	-12924
▁조직이	-12925
살의	-12926
위안	-12927
채가	-12928
▁병역	-12929
▁서민	-12930
▁취항	-12931
▁환영	-12932
루스의	-12933
▁야마토	-12934
▁올라간다	-12935
▁위원회의	-12936
운은	-12937
준비	-12938
▁무의	-12939
▁불꽃	-12940
▁소셜	-12941
▁관직에	-12942
▁교회를	-12943
▁수비수	-12944
▁있거나	-12945
▁작가의	-12946
▁제네바	-12947
▁지도를	-12948
▁친일파	-12949
▁선수로서	-12950
▁시스템에	-12951
혹한	-12952
▁GS	-12953
▁수에	-12954
▁시공	-12955
▁토요	-12956
▁개인이	-12957
▁건축가	-12958
▁열매는	-12959
▁개념이다	-12960
▁랴	-12961
전인	-12962
▁교리	-12963
▁극대	-12964
▁성당	-12965
▁오쿠	-12966
▁조르	-12967
▁포획	-12968
▁수도원	-12969
▁개념으로	-12970
▁포기하고	-12971
▁71	-12972
▁En	-12973
▁부설	-12974
▁퇴임	-12975
렸지만	-12976
▁경향을	-12977
▁이란의	-12978
▁최소한	-12979
기니	-12980
▁거북	-12981
▁기숙	-12982
▁남게	-12983
▁들을	-12984
▁한인	-12985
▁건설을	-12986
▁투어를	-12987
▁한국시리즈	-12988
▁Pr	-12989
▁시종	-12990
▁잘라	-12991
▁피츠	-12992
청에서	-12993
▁이르렀	-12994
▁주위를	-12995
▁아시카가	-12996
▁엔지니어	-12997
▁연세대학교	-12998
법칙	-12999
▁증후	-13000
▁해명	-13001
▁가지의	-13002
▁기여를	-13003
▁모습은	-13004
▁재판을	-13005
▁투수로	-13006
▁콜로라도	-13007
▁룩셈부르크	-13008
▁수면	-13009
▁저렴	-13010
하기는	-13011
해살이	-13012
▁경기로	-13013
▁궤도를	-13014
▁러시아는	-13015
▁부드러운	-13016
▁연극배우	-13017
▁인터내셔널	-13018
벌레	-13019
▁가려	-13020
▁글루	-13021
▁사모	-13022
▁조립	-13023
기관의	-13024
▁저기압	-13025
▁통합하여	-13026
광을	-13027
자고	-13028
철이	-13029
▁무슨	-13030
▁양반	-13031
▁가문은	-13032
▁격렬한	-13033
▁레인저	-13034
▁방사성	-13035
▁일제의	-13036
명이었다	-13037
▁대응하는	-13038
업의	-13039
ens	-13040
▁반공	-13041
▁없었	-13042
▁히타	-13043
▁중대한	-13044
▁나이지리아	-13045
말에	-13046
잡이	-13047
제학	-13048
▁모나	-13049
▁산란	-13050
▁앞장	-13051
▁前	-13052
한이	-13053
▁단절	-13054
▁박헌	-13055
▁오지	-13056
▁카나	-13057
거리가	-13058
▁교수를	-13059
▁아미타	-13060
▁이내에	-13061
▁주위에	-13062
▁캔자스	-13063
되어있다	-13064
중추	-13065
omp	-13066
▁영유	-13067
▁집결	-13068
교에서	-13069
▁데뷔한	-13070
▁되었다는	-13071
미한	-13072
부상	-13073
▁작아	-13074
▁적다	-13075
▁횡단	-13076
▁설명할	-13077
▁증거가	-13078
▁아케이드	-13079
▁더불어민주	-13080
_13	-13081
▁CJ	-13082
▁맞고	-13083
▁칭찬	-13084
▁고향인	-13085
▁공격수	-13086
▁선발로	-13087
▁1800	-13088
▁겁	-13089
근이	-13090
런은	-13091
▁성종	-13092
▁퇴역	-13093
ment	-13094
▁동안의	-13095
▁혁명의	-13096
의는	-13097
이한	-13098
▁성서	-13099
▁영지	-13100
▁통영	-13101
▁폭로	-13102
▁것인지	-13103
▁성으로	-13104
▁현재도	-13105
▁각지에서	-13106
▁마을에서	-13107
으로부터의	-13108
연료	-13109
있게	-13110
증의	-13111
ond	-13112
▁Bl	-13113
▁Co	-13114
▁동행	-13115
▁결정한다	-13116
▁함부르크	-13117
▁제주특별자치도	-13118
▁눌	-13119
▁실력	-13120
▁온갖	-13121
▁온대	-13122
번으로	-13123
▁메달을	-13124
▁실력을	-13125
▁클라이언	-13126
났을	-13127
노에	-13128
심히	-13129
협력	-13130
▁경로	-13131
▁김현	-13132
▁성숙	-13133
▁외에는	-13134
▁장비를	-13135
트로이트	-13136
▁예선에서	-13137
aw	-13138
양함	-13139
즈카	-13140
▁에밀	-13141
▁자란다	-13142
▁나타내고	-13143
▁코무네다	-13144
해튼	-13145
▁84	-13146
▁교양	-13147
▁규범	-13148
▁난을	-13149
▁브란	-13150
▁임관	-13151
▁키는	-13152
▁판사	-13153
▁끌었다	-13154
▁거부하고	-13155
복은	-13156
▁권장	-13157
▁발각	-13158
▁비타	-13159
▁세션	-13160
▁신탁	-13161
▁받았다고	-13162
▁대표적으로	-13163
▁엮	-13164
트륨	-13165
티가	-13166
▁가축	-13167
▁페리	-13168
▁기간은	-13169
▁드러머	-13170
▁선수들	-13171
▁소리가	-13172
▁여객철도의	-13173
▁숨어	-13174
▁통용	-13175
▁헬륨	-13176
터에서	-13177
▁가을에	-13178
▁미쳤다	-13179
▁시대가	-13180
▁아스널	-13181
MP	-13182
단위	-13183
직은	-13184
창은	-13185
▁국군	-13186
▁피로	-13187
차이나	-13188
▁몬스터	-13189
▁공격으로	-13190
▁등장인물	-13191
▁때가	-13192
▁맥스	-13193
▁아닐	-13194
▁알지	-13195
▁목록에	-13196
▁알리는	-13197
▁평안북도	-13198
▁향토문화	-13199
노를	-13200
니시	-13201
더의	-13202
쿠버	-13203
▁오비	-13204
▁한스	-13205
선수권	-13206
업으로	-13207
▁보내고	-13208
▁제안했다	-13209
▁형사소송	-13210
▁마하	-13211
▁자의	-13212
▁흔적이	-13213
▁드라이버	-13214
하임	-13215
▁계약이	-13216
다를	-13217
대구	-13218
▁김옥	-13219
당하는	-13220
▁김정은	-13221
▁박쥐의	-13222
▁주목할	-13223
보통학교	-13224
나서	-13225
타입	-13226
▁97	-13227
▁사정	-13228
▁상세	-13229
▁없던	-13230
▁캠프	-13231
레스의	-13232
▁기업인	-13233
▁뉴저지	-13234
▁활발히	-13235
▁최대풍속	-13236
▁콘스탄티노폴리스	-13237
학부	-13238
훈을	-13239
▁빈번	-13240
관계가	-13241
▁Mar	-13242
▁1885	-13243
안과	-13244
▁감싸	-13245
▁소모	-13246
▁처분	-13247
▁태자	-13248
▁플랜	-13249
▁건설된	-13250
▁공격해	-13251
▁나오고	-13252
▁본래의	-13253
▁붙었다	-13254
▁평화를	-13255
▁개인적인	-13256
▁보도했다	-13257
▁연합군의	-13258
다르	-13259
캐슬	-13260
편은	-13261
▁국어	-13262
▁길에	-13263
▁얼음	-13264
▁경찰의	-13265
▁무대로	-13266
▁킬로미터	-13267
버스터미널	-13268
▁87	-13269
▁고래	-13270
▁시바	-13271
▁의석	-13272
▁잔류	-13273
▁보여준	-13274
▁효과적으로	-13275
▁프랑크푸르트	-13276
▁꿀	-13277
아비	-13278
▁th	-13279
▁각색	-13280
▁분출	-13281
▁비영	-13282
▁주사	-13283
▁나라는	-13284
▁반도의	-13285
▁영화제	-13286
▁허가를	-13287
▁유래했다	-13288
▁취임했다	-13289
▁디트로이트	-13290
▁킥	-13291
복의	-13292
▁국왕의	-13293
▁다녔다	-13294
▁임명된	-13295
▁연결되는	-13296
▁불가능하다	-13297
▁$	-13298
▁쉐	-13299
▁불평	-13300
▁악기	-13301
▁중장	-13302
▁카우	-13303
▁회수	-13304
▁오피스	-13305
▁분위기를	-13306
ex	-13307
우기	-13308
▁소금	-13309
▁추산	-13310
▁측에	-13311
▁공항은	-13312
▁남쪽은	-13313
▁모티브	-13314
▁청주시	-13315
뤘다	-13316
보니	-13317
투자	-13318
피가	-13319
▁고령	-13320
▁기단	-13321
▁내전	-13322
▁볼로	-13323
▁선도	-13324
▁중서	-13325
되도록	-13326
▁꼽힌다	-13327
▁붙였다	-13328
▁집안의	-13329
▁홍문관	-13330
▁회사인	-13331
▁아라비아	-13332
▁선비	-13333
▁포장	-13334
▁103	-13335
▁건물이다	-13336
▁서식지는	-13337
▁학생들은	-13338
보와	-13339
위기	-13340
.6%	-13341
▁넘게	-13342
▁성별	-13343
우스가	-13344
▁미사일을	-13345
▁형성되어	-13346
도리	-13347
통제	-13348
▁스캔	-13349
▁대표는	-13350
▁클라이	-13351
▁실패하고	-13352
▁작가이다	-13353
루수	-13354
야와	-13355
히로	-13356
▁위헌	-13357
▁윤리	-13358
▁오사카부	-13359
▁토너먼트	-13360
▁예정이었으나	-13361
집의	-13362
▁갱신	-13363
▁연못	-13364
▁이장	-13365
▁가족의	-13366
▁중점을	-13367
▁표현한	-13368
▁그로부터	-13369
▁사용하면	-13370
▁권총	-13371
▁어렸을	-13372
▁책이다	-13373
▁게임에서	-13374
▁이스라엘의	-13375
우지	-13376
▁남구	-13377
▁두꺼	-13378
▁살려	-13379
▁세력은	-13380
▁검출	-13381
▁김홍	-13382
▁이룩	-13383
▁미네소	-13384
▁저작권	-13385
▁토너먼	-13386
▁환자의	-13387
▁개봉되었다	-13388
age	-13389
▁빈곤	-13390
▁이산	-13391
▁즈음	-13392
▁하남	-13393
▁그레고리오	-13394
쪽은	-13395
한테	-13396
▁안성	-13397
스라는	-13398
▁KIA	-13399
▁기본으로	-13400
▁스타리그	-13401
pt	-13402
▁→	-13403
▁도미	-13404
▁초빙	-13405
▁경찰이	-13406
▁볼셰비	-13407
▁위험을	-13408
▁인간을	-13409
▁공격했다	-13410
▁선수단은	-13411
▁연기했다	-13412
▁종교개혁	-13413
직의	-13414
▁그릇	-13415
▁다이어	-13416
▁서쪽은	-13417
▁역사와	-13418
▁유로파	-13419
▁은퇴하였다	-13420
발로	-13421
승의	-13422
친구	-13423
▁불태	-13424
▁유벤	-13425
▁헬리	-13426
했음을	-13427
▁사용되며	-13428
▁알렉산드로	-13429
GB	-13430
집은	-13431
▁조승	-13432
해졌고	-13433
▁일대의	-13434
▁올랐으며	-13435
트루	-13436
케라톱	-13437
▁구단의	-13438
▁자세히	-13439
▁1880	-13440
▁공개했다	-13441
▁프로그램으로	-13442
하르	-13443
▁목성	-13444
▁여우	-13445
▁패전	-13446
▁비행기	-13447
▁사전에	-13448
▁전기의	-13449
취를	-13450
포와	-13451
▁유권	-13452
▁차용	-13453
▁팀과	-13454
▁황족	-13455
▁동영상	-13456
▁도시에서	-13457
▁등장하였다	-13458
▁크리스토퍼	-13459
랑은	-13460
▁라오	-13461
▁모인	-13462
▁컴백	-13463
▁뛰었다	-13464
▁음악적	-13465
▁작업이	-13466
▁카드를	-13467
▁아니라는	-13468
▁왈	-13469
옥은	-13470
형인	-13471
▁JT	-13472
▁벌금	-13473
▁전날	-13474
▁함대	-13475
▁물질이	-13476
▁제도에	-13477
▁치열한	-13478
그의	-13479
세트	-13480
.3%	-13481
.4%	-13482
▁글래	-13483
▁들려	-13484
▁온천	-13485
연으로	-13486
▁소비자	-13487
▁자기의	-13488
▁니콜라이	-13489
▁동일하다	-13490
군단	-13491
연방	-13492
▁83	-13493
▁않자	-13494
▁환상	-13495
치에서	-13496
▁소문이	-13497
▁주머니	-13498
▁일이었다	-13499
RA	-13500
창의	-13501
▁EC	-13502
▁검정	-13503
▁년간	-13504
▁돌격	-13505
▁원의	-13506
▁이병	-13507
▁조화	-13508
석에서	-13509
▁대신해	-13510
▁텍스트	-13511
▁아리스토텔레	-13512
들었다	-13513
▁높이가	-13514
▁비하여	-13515
▁쌍둥이	-13516
▁위에는	-13517
▁장소로	-13518
▁부근에서	-13519
▁구성되었다	-13520
숙은	-13521
태를	-13522
▁라마	-13523
▁수장	-13524
▁순조	-13525
▁청산	-13526
▁공간은	-13527
▁시험을	-13528
▁단계에서	-13529
것도	-13530
▁칼라	-13531
현에서	-13532
▁리더십	-13533
▁서재필	-13534
▁올리는	-13535
▁뾰	-13536
▁틸	-13537
▁돌출	-13538
▁북위	-13539
▁옆면	-13540
▁직할	-13541
▁충성	-13542
▁CEO	-13543
▁연구와	-13544
▁진행하는	-13545
ii	-13546
나에	-13547
절이	-13548
클로	-13549
후로	-13550
.2%	-13551
▁리뷰	-13552
▁115	-13553
▁두개골	-13554
▁작성한	-13555
▁조성된	-13556
▁가정에서	-13557
▁내무	-13558
▁절차를	-13559
▁받으면서	-13560
▁프로젝트의	-13561
사고	-13562
생명	-13563
적과	-13564
▁믿는	-13565
▁패널	-13566
▁형상	-13567
예정자	-13568
▁논란을	-13569
▁헌법에	-13570
▁발생하여	-13571
▁사랑하는	-13572
업과	-13573
▁약혼	-13574
▁피트	-13575
▁블루스	-13576
▁선출된	-13577
▁스탈린	-13578
▁오로지	-13579
▁위주로	-13580
▁생겨났다	-13581
▁일어나고	-13582
▁하느님의	-13583
액이	-13584
▁강희	-13585
▁맥도	-13586
▁발병	-13587
▁평을	-13588
▁호칭	-13589
다가스카	-13590
박물관에	-13591
▁정의된다	-13592
▁적용되었다	-13593
가르	-13594
▁CN	-13595
▁곤란	-13596
▁맞대	-13597
그라드	-13598
▁독일에	-13599
▁상황은	-13600
▁인터페이스	-13601
~6	-13602
푸스	-13603
▁대니	-13604
▁대패	-13605
▁막부의	-13606
▁시즌은	-13607
▁신화의	-13608
▁1871	-13609
▁프로덕션	-13610
법상	-13611
▁돌로	-13612
▁양을	-13613
▁튀니	-13614
연구원	-13615
협의회	-13616
▁소련은	-13617
▁의혹이	-13618
▁이해할	-13619
▁운영되고	-13620
▁쾰	-13621
대왕	-13622
체고	-13623
▁앞의	-13624
▁정유	-13625
테이션	-13626
▁방향에	-13627
▁별개의	-13628
LE	-13629
▁합친	-13630
▁허위	-13631
개월간	-13632
만명의	-13633
거진	-13634
▁별이	-13635
▁종을	-13636
▁즐길	-13637
▁질환	-13638
제도를	-13639
▁가깝다	-13640
▁가지로	-13641
▁동쪽의	-13642
▁목성의	-13643
▁엔진이	-13644
▁열차의	-13645
학자이자	-13646
아스	-13647
▁무척	-13648
▁창출	-13649
▁판정	-13650
조에서	-13651
▁전략을	-13652
▁시즌부터	-13653
MC	-13654
계급	-13655
▁경에	-13656
▁공표	-13657
▁비자	-13658
▁아타	-13659
▁제의	-13660
▁줄여	-13661
▁황해	-13662
년에도	-13663
사회의	-13664
▁80%	-13665
▁구간의	-13666
▁미래의	-13667
▁주연을	-13668
▁경기도의	-13669
▁Le	-13670
▁고인	-13671
▁끌고	-13672
▁소나	-13673
▁수색	-13674
▁치안	-13675
▁탄도	-13676
▁해고	-13677
▁조사에	-13678
▁인정하는	-13679
하늘	-13680
▁동점	-13681
▁이데	-13682
속에서	-13683
아버지	-13684
▁물체의	-13685
▁바꾸고	-13686
▁슬라브	-13687
▁중심에	-13688
계에서는	-13689
▁내용이다	-13690
▁메커니즘	-13691
▁학생들을	-13692
아키	-13693
작인	-13694
초로	-13695
▁맺어	-13696
▁숙청	-13697
▁은거	-13698
▁진지	-13699
▁인류의	-13700
▁토지를	-13701
▁남북으로	-13702
염을	-13703
▁지장	-13704
차례의	-13705
▁로마에	-13706
▁묘사한	-13707
검사	-13708
_18	-13709
▁05	-13710
▁그루	-13711
▁비용이	-13712
▁방면으로	-13713
▁세인트루	-13714
▁일렉트로	-13715
▁활동하다가	-13716
오나	-13717
정신	-13718
헤이	-13719
▁가열	-13720
▁간선	-13721
▁견인	-13722
▁마츠	-13723
▁세네	-13724
▁세상	-13725
▁조광	-13726
▁서쪽의	-13727
▁점수를	-13728
OD	-13729
암의	-13730
인권	-13731
팀에	-13732
▁79	-13733
▁광장	-13734
▁자생	-13735
공무원	-13736
상규명	-13737
▁동쪽은	-13738
▁선택할	-13739
▁수도를	-13740
▁코치를	-13741
▁샀	-13742
▁만료	-13743
▁암흑	-13744
▁퍼포	-13745
각으로	-13746
▁누구나	-13747
▁맨해튼	-13748
▁나타나고	-13749
매매	-13750
▁반경	-13751
▁백화	-13752
▁쓰레	-13753
▁클래스	-13754
▁사용하기도	-13755
OU	-13756
로우	-13757
장치	-13758
▁금성	-13759
▁김씨	-13760
▁모셔	-13761
▁의결	-13762
▁이방	-13763
부에는	-13764
▁그래프	-13765
▁싸우는	-13766
▁의무를	-13767
▁흐름을	-13768
▁이전부터	-13769
▁공이	-13770
▁내정	-13771
▁사관	-13772
▁지평	-13773
비치는	-13774
▁극심한	-13775
▁기간이	-13776
▁방송되는	-13777
▁천연기념	-13778
▁기록되었다	-13779
▁is	-13780
▁낙동	-13781
▁스태	-13782
▁종교의	-13783
▁카르타	-13784
▁파리의	-13785
▁하원의	-13786
관련	-13787
난을	-13788
애틀	-13789
주택	-13790
▁풍자	-13791
▁못하여	-13792
▁버전을	-13793
▁프란체	-13794
▁사용되지	-13795
▁이전까지	-13796
과와	-13797
언어	-13798
탄은	-13799
ial	-13800
▁급성	-13801
▁미터	-13802
▁예하	-13803
▁협조	-13804
▁올바른	-13805
▁의혹을	-13806
▁캠퍼스	-13807
▁현상은	-13808
▁수록예정자	-13809
▁감마	-13810
▁서원	-13811
▁수녀	-13812
당하여	-13813
러와	-13814
케는	-13815
▁가오	-13816
▁냄새	-13817
▁러셀	-13818
▁마일	-13819
▁무성	-13820
▁보드	-13821
▁부총	-13822
▁세조	-13823
▁오노	-13824
▁제퍼	-13825
들보다	-13826
▁그렸다	-13827
▁수단으로	-13828
▁용어이다	-13829
MI	-13830
.7%	-13831
▁공과	-13832
▁동인	-13833
▁연수	-13834
▁홍콩의	-13835
▁지원하고	-13836
▁함경남도	-13837
▁합스부르크	-13838
-9	-13839
강전	-13840
번이	-13841
▁93	-13842
▁이소	-13843
세였다	-13844
키아의	-13845
▁국가와	-13846
▁면이다	-13847
▁서식지	-13848
개에	-13849
own	-13850
▁발의	-13851
▁유연	-13852
▁체크	-13853
▁기업이	-13854
▁바꾸는	-13855
▁반도체	-13856
▁않아서	-13857
▁했었다	-13858
▁1870	-13859
▁이용된다	-13860
분과	-13861
▁가맹	-13862
▁관악	-13863
▁면허	-13864
▁워터	-13865
▁모두를	-13866
▁무함마	-13867
▁영지를	-13868
▁타이베이	-13869
코르	-13870
▁구해	-13871
▁나주	-13872
▁미들	-13873
포켓몬	-13874
▁교통의	-13875
▁쿠데타	-13876
개국에서	-13877
▁기념하여	-13878
▁해체되었다	-13879
▁국가대표팀에	-13880
사한	-13881
신학	-13882
▁메릴	-13883
▁시노	-13884
▁강남구	-13885
▁그곳에	-13886
▁도왔다	-13887
▁인접해	-13888
▁페이스북	-13889
요를	-13890
▁대북	-13891
▁좌석	-13892
▁추종	-13893
집으로	-13894
▁선수의	-13895
▁세이부	-13896
▁미래통합	-13897
▁발렌시아	-13898
▁운행하고	-13899
▁렉	-13900
▁찐	-13901
리얼	-13902
배가	-13903
연수	-13904
읍에	-13905
▁내어	-13906
▁유라	-13907
▁이규	-13908
▁초월	-13909
▁치고	-13910
▁탐색	-13911
▁편지	-13912
▁확신	-13913
명에서	-13914
쪽에는	-13915
▁스테이	-13916
▁우승했다	-13917
능한	-13918
록을	-13919
아야	-13920
▁자칭	-13921
▁나라가	-13922
▁문화와	-13923
▁생각이	-13924
▁중국인	-13925
▁해군은	-13926
▁커뮤니케이션	-13927
LS	-13928
~8	-13929
보도	-13930
에의	-13931
▁GP	-13932
▁궁궐	-13933
▁데서	-13934
▁섬과	-13935
▁회피	-13936
티미터	-13937
▁순으로	-13938
▁1600	-13939
미트	-13940
보수	-13941
ert	-13942
▁장을	-13943
▁중퇴	-13944
▁천거	-13945
밀하게	-13946
연대는	-13947
▁사상은	-13948
▁생산된	-13949
▁싸움을	-13950
▁마다가스카	-13951
령과	-13952
▁지옥	-13953
▁기관총	-13954
▁모시고	-13955
▁스카우	-13956
▁조정의	-13957
▁클럽의	-13958
▁평론가	-13959
▁하도록	-13960
▁함수는	-13961
▁기여하였다	-13962
▁오늘날에는	-13963
ass	-13964
ite	-13965
▁92	-13966
▁복소	-13967
▁자작	-13968
▁최진	-13969
▁힘썼	-13970
▁아돌프	-13971
HO	-13972
시한	-13973
_14	-13974
▁경연	-13975
▁동조	-13976
▁태그	-13977
▁기반한	-13978
▁길이의	-13979
▁북쪽은	-13980
▁손해배	-13981
▁자랐다	-13982
▁자체의	-13983
▁잡아먹	-13984
▁룰	-13985
포드	-13986
화물	-13987
▁상인	-13988
▁추첨	-13989
▁그룹을	-13990
▁앨범에	-13991
▁언론에	-13992
▁주제를	-13993
창한	-13994
틴은	-13995
▁가구	-13996
▁동위	-13997
▁마야	-13998
▁당하고	-13999
▁문제와	-14000
▁분리된	-14001
▁서울에	-14002
▁동일하게	-14003
▁필요성을	-14004
▁석회	-14005
▁현행	-14006
▁접근할	-14007
▁혁명을	-14008
▁100%	-14009
▁방문하여	-14010
▁국회의원을	-14011
운영	-14012
.8%	-14013
▁과반	-14014
▁기어	-14015
▁쾌속	-14016
▁현금	-14017
▁말부터	-14018
▁아마존	-14019
▁위험이	-14020
▁이상한	-14021
▁푸에르	-14022
▁혼란을	-14023
▁얕	-14024
▁Te	-14025
▁다를	-14026
▁생식	-14027
각형의	-14028
▁가사를	-14029
▁말까지	-14030
▁매니저	-14031
▁가르쳤다	-14032
▁고려시대의	-14033
▁뻔	-14034
거의	-14035
맥스	-14036
▁마닐	-14037
▁배려	-14038
▁시립	-14039
▁회화	-14040
년대와	-14041
론으로	-14042
수에서	-14043
회의를	-14044
-200	-14045
▁싸웠다	-14046
▁판매를	-14047
▁영화제에서	-14048
미스	-14049
풀이	-14050
▁글자	-14051
▁델라	-14052
▁음료	-14053
▁차를	-14054
▁하동	-14055
이었을	-14056
▁제시한	-14057
▁언급했다	-14058
▁카를로스	-14059
봉사	-14060
▁늑대	-14061
▁수축	-14062
▁갈등이	-14063
▁암호화	-14064
▁도착했다	-14065
▁Su	-14066
▁천재	-14067
▁키가	-14068
▁미얀마	-14069
▁앨범인	-14070
주의적인	-14071
궁을	-14072
전시	-14073
차량	-14074
▁날이	-14075
▁둔다	-14076
▁음원	-14077
▁읽고	-14078
▁해변	-14079
▁안전한	-14080
▁프란츠	-14081
▁늘어났다	-14082
▁시기에는	-14083
▁피를	-14084
▁불규칙	-14085
▁표현할	-14086
▁노래이다	-14087
▁발견되지	-14088
▁프로젝트는	-14089
▁냈	-14090
메가	-14091
성인	-14092
net	-14093
▁방침	-14094
▁파손	-14095
▁하원	-14096
▁대도시	-14097
▁열차를	-14098
▁아이디얼	-14099
▁World	-14100
▁빔	-14101
▁지위	-14102
▁축조	-14103
▁가져온	-14104
▁시장의	-14105
▁천문학자	-14106
브루	-14107
요의	-14108
▁뾰족	-14109
▁유산	-14110
▁협정	-14111
▁머리에	-14112
▁수도로	-14113
▁인간은	-14114
▁전투의	-14115
▁미네소타	-14116
▁수행한다	-14117
준을	-14118
집행	-14119
▁la	-14120
▁소말	-14121
▁아야	-14122
▁New	-14123
▁고대의	-14124
▁사랑에	-14125
▁지휘를	-14126
▁자료이다	-14127
▁하였지만	-14128
▁전국적으로	-14129
IG	-14130
망의	-14131
병과	-14132
에미	-14133
페란	-14134
rom	-14135
▁당주	-14136
▁부각	-14137
▁신조	-14138
▁연소	-14139
▁영국이	-14140
▁정책은	-14141
▁콤팩트	-14142
▁클레멘	-14143
▁한국과	-14144
위원회에	-14145
▁역사에서	-14146
네마	-14147
황제	-14148
▁개를	-14149
▁로그	-14150
▁III	-14151
▁가상의	-14152
▁겉보기	-14153
▁여성을	-14154
▁클럽은	-14155
▁파이널	-14156
▁행동에	-14157
▁고려하여	-14158
▁변경했다	-14159
▁상관없이	-14160
▁스트리트	-14161
▁주관하는	-14162
▁출연하여	-14163
세다	-14164
쉽게	-14165
박물관	-14166
정부는	-14167
▁쓰여진	-14168
▁담당한다	-14169
▁케임브리지	-14170
수리	-14171
토벤	-14172
▁IM	-14173
▁감금	-14174
▁고소	-14175
▁레슬링	-14176
▁사태가	-14177
▁외교관	-14178
▁벨기에의	-14179
▁데뷔하였으며	-14180
라트	-14181
미즈	-14182
ree	-14183
▁넷째	-14184
▁세금	-14185
▁제니	-14186
▁직장	-14187
▁하반	-14188
▁화를	-14189
▁효소	-14190
버스는	-14191
▁그룹이	-14192
▁선수들은	-14193
▁안토니오	-14194
▁북아일랜드	-14195
▁체포되었다	-14196
질러	-14197
ost	-14198
▁가늘	-14199
▁되던	-14200
▁무지	-14201
▁한편으로	-14202
▁출판되었다	-14203
기자	-14204
▁때려	-14205
▁상경	-14206
▁아날	-14207
▁이천	-14208
▁증대	-14209
▁출가	-14210
▁투명	-14211
심으로	-14212
하기가	-14213
▁가격이	-14214
▁건축물	-14215
▁동부에	-14216
▁병원에서	-14217
발사	-14218
피에	-14219
▁매매	-14220
▁미친	-14221
▁어둠	-14222
▁연봉	-14223
▁간신히	-14224
▁체계는	-14225
▁선임되었다	-14226
나스	-14227
민과	-14228
편성	-14229
act	-14230
▁LA	-14231
▁몸의	-14232
▁완성된	-14233
▁스크린도	-14234
▁형성하는	-14235
ps	-14236
진보	-14237
▁슈트	-14238
▁해가	-14239
▁휴전	-14240
해야만	-14241
▁내리는	-14242
▁무렵에	-14243
▁방법에	-14244
▁영업을	-14245
▁내부에서	-14246
▁싣	-14247
국적	-14248
리던	-14249
▁가솔	-14250
▁누적	-14251
▁어쩔	-14252
▁핸드	-14253
팀으로	-14254
▁오르는	-14255
▁유형의	-14256
▁장면이	-14257
▁통치를	-14258
▁보존되어	-14259
▁요청했다	-14260
▁진행했다	-14261
▁박사학위를	-14262
시게	-14263
플레	-14264
▁공습	-14265
▁김구	-14266
▁농장	-14267
▁닫힌	-14268
▁마우	-14269
▁요동	-14270
갔다가	-14271
▁판매하는	-14272
pe	-14273
디와	-14274
▁데스	-14275
▁벌여	-14276
▁이렇	-14277
▁조류	-14278
▁죽인	-14279
▁타당	-14280
▁슬로베니아	-14281
▁스튜디오에서	-14282
나오	-14283
▁89	-14284
▁라그	-14285
▁선로	-14286
▁타협	-14287
▁하시	-14288
▁발견되어	-14289
▁쿤	-14290
시킴	-14291
▁LP	-14292
▁대안	-14293
▁사바	-14294
▁가리지	-14295
▁달라고	-14296
▁주위의	-14297
▁발표하고	-14298
교구	-14299
서기	-14300
▁견해	-14301
▁생체	-14302
▁우의	-14303
▁유진	-14304
노스케	-14305
명이며	-14306
▁독일인	-14307
▁마라톤	-14308
▁시애틀	-14309
▁성적으로	-14310
▁미션	-14311
▁입헌	-14312
▁휩쓸	-14313
▁데스크	-14314
▁드디어	-14315
▁리그인	-14316
세기에는	-14317
갈색	-14318
롭고	-14319
화할	-14320
▁포착	-14321
▁바뀌어	-14322
▁바다에	-14323
▁지키기	-14324
▁함수를	-14325
▁체코슬로바키아	-14326
▁으	-14327
히트	-14328
.1%	-14329
▁굵은	-14330
▁크롬	-14331
▁하라	-14332
▁회로	-14333
▁나라에	-14334
▁소련이	-14335
▁심하게	-14336
▁애리조	-14337
▁전국의	-14338
술은	-14339
▁김병	-14340
▁리베	-14341
▁막시	-14342
▁서포	-14343
▁내용에	-14344
▁대대적인	-14345
▁이용해서	-14346
손의	-14347
졌기	-14348
▁ID	-14349
▁경질	-14350
▁노면	-14351
▁리보	-14352
▁바나	-14353
▁탐구	-14354
대회를	-14355
정부가	-14356
▁미치지	-14357
▁아키텍	-14358
▁조약이	-14359
▁표현이	-14360
▁극장에서	-14361
▁알래스카	-14362
▁에너지가	-14363
림과	-14364
아래	-14365
일자	-14366
▁CC	-14367
▁늦게	-14368
▁명은	-14369
▁2-0	-14370
▁90%	-14371
▁서울로	-14372
▁지역인	-14373
▁천황이	-14374
▁파란색	-14375
▁흐르고	-14376
▁단독으로	-14377
것이	-14378
국사	-14379
▁공신	-14380
▁압둘	-14381
▁가족과	-14382
▁균형을	-14383
▁거부했다	-14384
▁낚	-14385
▁강풍	-14386
▁기회	-14387
▁독창	-14388
▁흥미	-14389
웨이트	-14390
▁다케다	-14391
▁따뜻한	-14392
▁유학생	-14393
▁협력을	-14394
메다	-14395
▁다툼	-14396
▁산이	-14397
▁성리	-14398
▁쾰른	-14399
▁연합의	-14400
▁원나라	-14401
▁위원장	-14402
▁카스티	-14403
▁노선으로	-14404
▁어드벤처	-14405
▁농산	-14406
▁얇은	-14407
▁요약	-14408
▁전격	-14409
▁피의	-14410
조참판	-14411
▁구하는	-14412
▁시간대	-14413
▁일하고	-14414
▁낫	-14415
균은	-14416
는가	-14417
더가	-14418
묘한	-14419
▁곡선	-14420
▁다투	-14421
▁결정에	-14422
▁도입한	-14423
▁선거구	-14424
▁제목은	-14425
▁조직은	-14426
▁관계없이	-14427
평의	-14428
ile	-14429
▁당원	-14430
▁일간	-14431
▁주자	-14432
▁표지	-14433
▁왔으며	-14434
▁전당에	-14435
▁새누리당	-14436
▁압도적인	-14437
▁은퇴했다	-14438
RE	-14439
심과	-14440
양에	-14441
▁결별	-14442
▁나은	-14443
▁태백	-14444
티아의	-14445
▁독일군	-14446
▁영역에	-14447
▁후기에	-14448
▁다양하게	-14449
▁벵	-14450
결과	-14451
러브	-14452
부르	-14453
코를	-14454
합을	-14455
▁겹쳐	-14456
▁단식	-14457
▁이빨	-14458
▁순위를	-14459
▁시간의	-14460
▁초창기	-14461
▁한계를	-14462
▁활발하게	-14463
GM	-14464
▁보성	-14465
▁상표	-14466
▁케빈	-14467
리그에	-14468
▁민간인	-14469
▁법무부	-14470
▁서부에	-14471
▁승리에	-14472
▁왕실의	-14473
▁태국의	-14474
▁힘으로	-14475
킬로미터	-14476
▁선수들의	-14477
▁야마가타	-14478
락의	-14479
태는	-14480
학원	-14481
-14	-14482
▁Am	-14483
▁겪고	-14484
글라데	-14485
▁당대의	-14486
▁중국은	-14487
▁카운티	-14488
전문학교	-14489
▁드라이브	-14490
대대	-14491
슬레	-14492
역학	-14493
전략	-14494
▁SD	-14495
▁듀얼	-14496
▁마녀	-14497
▁우측	-14498
▁칼럼	-14499
▁CON	-14500
▁와이번	-14501
▁그룹으로	-14502
▁크리스티안	-14503
노프	-14504
▁경희	-14505
▁긴장	-14506
▁실존	-14507
▁우르	-14508
▁폭행	-14509
▁호를	-14510
개국이	-14511
났지만	-14512
▁Man	-14513
▁경쟁을	-14514
▁시도를	-14515
▁제정된	-14516
▁트로이	-14517
▁파운드	-14518
드릭	-14519
순환	-14520
▁전래	-14521
▁하트	-14522
순위로	-14523
▁그보다	-14524
▁똑같이	-14525
▁베토벤	-14526
엔터테인먼	-14527
▁세종특별자치	-14528
▁강동	-14529
▁갖지	-14530
▁세기	-14531
▁옵션	-14532
▁원격	-14533
▁증조	-14534
능력을	-14535
▁동유럽	-14536
▁사라진	-14537
디지	-14538
슬리	-14539
어인	-14540
전차	-14541
티나	-14542
▁죽게	-14543
하게도	-14544
▁구역은	-14545
▁에디션	-14546
▁자유형	-14547
▁정도에	-14548
▁지키고	-14549
▁토스카	-14550
▁사람들과	-14551
▁생물학적	-14552
▁추구하는	-14553
▁수여받았다	-14554
▁사서	-14555
▁우정	-14556
▁입주	-14557
▁춤을	-14558
▁건조한	-14559
▁내각의	-14560
▁레스토	-14561
▁웨스턴	-14562
도서관은	-14563
▁명명되었다	-14564
▁`	-14565
믹스	-14566
집단	-14567
▁입지	-14568
▁장사	-14569
▁캐서	-14570
▁미주리	-14571
▁협정을	-14572
▁정당이다	-14573
이야	-14574
종에	-14575
▁듣지	-14576
▁번성	-14577
▁전지	-14578
▁차원	-14579
▁퇴적	-14580
▁파동	-14581
▁호크	-14582
지었다	-14583
▁수용할	-14584
▁제한된	-14585
▁점령했다	-14586
_16	-14587
▁Br	-14588
▁Op	-14589
▁가네	-14590
▁리오	-14591
▁제출한	-14592
▁설명하고	-14593
▁스톡홀름	-14594
▁내걸	-14595
▁대마	-14596
▁동학	-14597
▁봄에	-14598
▁대대로	-14599
▁도로를	-14600
▁마을이	-14601
▁강조했다	-14602
▁공격하는	-14603
▁바이올린	-14604
▁발견하고	-14605
▁수록되었다	-14606
▁토착종이다	-14607
▁SU	-14608
▁법의	-14609
▁불린	-14610
▁중엽	-14611
▁차체	-14612
▁투항	-14613
▁헌정	-14614
▁대화를	-14615
▁소재의	-14616
▁퍼포먼	-14617
▁영화에서	-14618
가수	-14619
척을	-14620
토록	-14621
▁대행	-14622
▁집어	-14623
▁논쟁이	-14624
▁십자군	-14625
▁친구인	-14626
감의	-14627
.9%	-14628
▁대명	-14629
▁막는	-14630
▁촉매	-14631
▁형인	-14632
지지만	-14633
▁긴테쓰	-14634
▁되도록	-14635
▁받아야	-14636
▁부드럽	-14637
▁상처를	-14638
▁세포의	-14639
▁열심히	-14640
▁일본국	-14641
▁총리는	-14642
▁살아있는	-14643
▁출발하여	-14644
▁경작	-14645
▁다비	-14646
▁면이	-14647
▁불참	-14648
▁상행	-14649
▁콜린	-14650
▁시청률	-14651
▁아폴로	-14652
▁언론인	-14653
▁중국을	-14654
국제공항	-14655
▁활동하던	-14656
거가	-14657
▁고산	-14658
▁요충	-14659
공사의	-14660
▁정의는	-14661
▁충청도	-14662
▁방글라데	-14663
▁소프트웨어를	-14664
▁Ex	-14665
▁시정	-14666
▁원숭	-14667
▁원조	-14668
▁테르	-14669
년도에	-14670
▁정하고	-14671
▁인디애나	-14672
▁워너	-14673
▁유식	-14674
▁절차	-14675
▁떨어뜨	-14676
▁전통적	-14677
▁간주된다	-14678
밀히	-14679
▁마인	-14680
▁배속	-14681
▁우드	-14682
▁이건	-14683
▁치른	-14684
▁투르	-14685
▁5.1	-14686
▁마오쩌	-14687
▁명확한	-14688
▁사랑의	-14689
▁유럽과	-14690
▁축구를	-14691
▁단체이다	-14692
▁캐릭터를	-14693
▁개통되었다	-14694
LA	-14695
▁공으로	-14696
▁성향의	-14697
▁세금을	-14698
▁종목은	-14699
▁않았다는	-14700
▁원인으로	-14701
ick	-14702
▁묶어	-14703
▁솟아	-14704
▁워크	-14705
▁조병	-14706
▁체인	-14707
스키의	-14708
▁검은색	-14709
▁교회는	-14710
▁동대문	-14711
▁분석을	-14712
▁성에서	-14713
▁인증을	-14714
▁클럽인	-14715
▁바르샤바	-14716
고래	-14717
용과	-14718
웠던	-14719
▁기기	-14720
▁몰수	-14721
▁양육	-14722
▁양자로	-14723
▁경기장으로	-14724
▁실시되었다	-14725
++	-14726
되나	-14727
락은	-14728
먼드	-14729
문자	-14730
▁BS	-14731
▁값은	-14732
▁부재	-14733
▁118	-14734
▁것이나	-14735
▁단체의	-14736
▁반응이	-14737
▁젊은이	-14738
대학교를	-14739
▁도쿄에서	-14740
▁시리즈에	-14741
리야	-14742
▁다름	-14743
▁정작	-14744
대학의	-14745
▁가족을	-14746
▁사건과	-14747
▁신화에	-14748
▁이용객	-14749
▁내에서는	-14750
▁음반으로	-14751
ft	-14752
▁흠	-14753
리온	-14754
iss	-14755
▁딸이	-14756
▁성곽	-14757
▁진실	-14758
▁티켓	-14759
▁파산	-14760
▁평평	-14761
▁생긴다	-14762
▁서대문	-14763
▁애비뉴	-14764
▁제국과	-14765
▁총리를	-14766
▁설립하여	-14767
예가	-14768
▁발령	-14769
▁손실	-14770
▁총장	-14771
▁충전	-14772
▁한명	-14773
가지가	-14774
부분에	-14775
▁대단히	-14776
받았으며	-14777
▁로마에서	-14778
▁정기적으로	-14779
eb	-14780
~1	-14781
결혼	-14782
만인	-14783
망에	-14784
▁그저	-14785
▁니코	-14786
▁바에	-14787
▁220	-14788
▁혐의를	-14789
▁콰	-14790
좌를	-14791
▁격투	-14792
▁벽돌	-14793
▁이완	-14794
▁카카	-14795
▁파기	-14796
▁도시인	-14797
▁크라이	-14798
년대까지	-14799
기둥	-14800
올라	-14801
평론	-14802
형제	-14803
▁기저	-14804
▁스노	-14805
▁원더	-14806
▁점과	-14807
그룹의	-14808
▁주도한	-14809
▁죽음에	-14810
▁하루에	-14811
▁효과는	-14812
▁1889	-14813
▁선수단이다	-14814
현대	-14815
▁적어	-14816
▁터치	-14817
났는데	-14818
▁권위를	-14819
▁요시노	-14820
▁하나다	-14821
▁성장하였다	-14822
ll	-14823
유키	-14824
황의	-14825
▁08	-14826
▁경의	-14827
▁다테	-14828
▁상응	-14829
▁자아	-14830
▁전신인	-14831
▁행성이	-14832
▁버전으로	-14833
무의	-14834
바람	-14835
▁우회	-14836
시간이	-14837
▁70%	-14838
▁사항을	-14839
▁열대폭	-14840
▁왕가의	-14841
▁그레이트	-14842
▁일어나지	-14843
위원회에서	-14844
sp	-14845
▁엇	-14846
▁반격	-14847
▁상담	-14848
▁수필	-14849
▁씨가	-14850
▁도로가	-14851
▁황제는	-14852
▁그녀에게	-14853
▁기간동안	-14854
▁디자인은	-14855
▁사용되기도	-14856
▁*	-14857
선생	-14858
토로	-14859
포에	-14860
▁바꿨	-14861
▁병이	-14862
▁이태	-14863
▁직통	-14864
당한다	-14865
▁450	-14866
▁붙여졌다	-14867
▁진해	-14868
▁토끼	-14869
▁협주	-14870
만원을	-14871
자리의	-14872
▁CBS	-14873
▁부대의	-14874
▁저널리	-14875
▁하이드	-14876
▁동치이다	-14877
▁입학하여	-14878
▁주민들의	-14879
더를	-14880
루아	-14881
ath	-14882
▁구형	-14883
▁어찌	-14884
▁시에는	-14885
▁참여할	-14886
▁관해서는	-14887
▁선수였다	-14888
▁증가하고	-14889
업체	-14890
▁고기	-14891
▁사탕	-14892
▁음향	-14893
▁중공	-14894
▁차로	-14895
▁콜라	-14896
▁북한이	-14897
▁아이가	-14898
▁약속을	-14899
ox	-14900
펜하	-14901
old	-14902
▁명목	-14903
▁보라	-14904
▁사리	-14905
▁산지	-14906
▁소통	-14907
▁이득	-14908
▁제대	-14909
위까지	-14910
▁있다며	-14911
▁작전에	-14912
▁처분을	-14913
기계	-14914
루로	-14915
행동	-14916
▁것일	-14917
▁타자	-14918
▁헬싱	-14919
▁병원에	-14920
▁인테르	-14921
▁정의를	-14922
산성	-14923
워서	-14924
▁표본	-14925
▁난카이	-14926
▁만들었고	-14927
다드	-14928
일인	-14929
▁궁정	-14930
▁에게	-14931
▁유타	-14932
▁가르침	-14933
▁규정을	-14934
▁사카이	-14935
▁역할은	-14936
▁설립되어	-14937
단지	-14938
직할	-14939
▁바꿀	-14940
▁오아	-14941
▁전무	-14942
▁중수	-14943
▁포드	-14944
원숭이	-14945
▁40%	-14946
▁도널드	-14947
▁증상이	-14948
▁베네수엘라	-14949
▁팔레스타인	-14950
가게	-14951
셨다	-14952
ary	-14953
▁방콕	-14954
▁서임	-14955
▁종군	-14956
▁유아기를	-14957
▁헤르체고	-14958
▁독자적으로	-14959
▁서울특별시의	-14960
수지	-14961
▁베른	-14962
▁지쿠	-14963
▁코코	-14964
▁하행	-14965
▁각지의	-14966
▁생겨난	-14967
▁유력한	-14968
진상규명	-14969
▁한편으로는	-14970
충은	-14971
▁Wh	-14972
▁방치	-14973
▁잃게	-14974
▁쪽은	-14975
내었다	-14976
테스트	-14977
▁곳곳에	-14978
▁보낸다	-14979
▁복소수	-14980
▁이름과	-14981
▁작성된	-14982
▁1883	-14983
▁오클랜드	-14984
▁옥스퍼드	-14985
련된	-14986
보르	-14987
청구	-14988
테크	-14989
▁갑옷	-14990
▁박지	-14991
▁입구	-14992
▁코카	-14993
▁풍속	-14994
▁시코쿠	-14995
▁예전에	-14996
▁출판된	-14997
▁헌법을	-14998
▁일본군의	-14999
브르	-15000
약의	-15001
▁고사	-15002
▁대부	-15003
▁밀리	-15004
▁전전	-15005
▁최성	-15006
▁소나무	-15007
▁해안에	-15008
▁간격으로	-15009
▁부르고뉴	-15010
▁전까지는	-15011
/3	-15012
암아	-15013
호텔	-15014
▁국유	-15015
▁상급	-15016
▁수령	-15017
▁영산	-15018
▁유목	-15019
▁전수	-15020
▁존스	-15021
블랜드	-15022
▁시작할	-15023
▁예컨대	-15024
덴부르크	-15025
▁중심지로	-15026
▁컴퓨터를	-15027
타스	-15028
▁아산	-15029
▁목적이	-15030
▁유리한	-15031
▁한국을	-15032
과정에서	-15033
▁유지하기	-15034
▁활동하며	-15035
극을	-15036
▁동국	-15037
▁헌신	-15038
▁고문을	-15039
▁무리를	-15040
▁스미스	-15041
욱은	-15042
~10	-15043
▁간략	-15044
▁드는	-15045
▁옮긴	-15046
▁이닝	-15047
▁조세	-15048
▁조형	-15049
▁차출	-15050
좌상은	-15051
해지자	-15052
▁용인시	-15053
▁야마구치	-15054
고려	-15055
독한	-15056
월을	-15057
_17	-15058
승으로	-15059
운동이	-15060
▁대전의	-15061
▁미군의	-15062
▁알파벳	-15063
▁임명하였다	-15064
▁플레이어가	-15065
_20	-15066
▁다저	-15067
▁데모	-15068
▁저널	-15069
▁창녕	-15070
국이다	-15071
▁수학적	-15072
▁않아도	-15073
▁행하는	-15074
▁따라서는	-15075
시인	-15076
▁살게	-15077
▁쪽에	-15078
▁추서	-15079
▁내리고	-15080
▁무소속	-15081
▁양식의	-15082
▁정하는	-15083
▁가나가와현	-15084
▁정치적으로	-15085
▁캉	-15086
폭탄	-15087
▁EU	-15088
▁공천	-15089
▁문하	-15090
▁씨앗	-15091
▁주입	-15092
▁피오	-15093
▁현직	-15094
▁느끼고	-15095
▁대사헌	-15096
▁마리의	-15097
고속도로의	-15098
▁캐나다에서	-15099
됐던	-15100
복이	-15101
사도	-15102
▁갤러	-15103
▁나를	-15104
▁수산	-15105
▁승점	-15106
▁예는	-15107
▁장덕	-15108
▁짧고	-15109
▁첨단	-15110
관계에	-15111
▁대기업	-15112
▁사이토	-15113
▁사헌부	-15114
▁안정된	-15115
▁에서는	-15116
▁장소에	-15117
▁천문학	-15118
▁설치하였다	-15119
▁진행하였다	-15120
▁형성되었다	-15121
▁제임	-15122
▁대표가	-15123
▁대학은	-15124
▁식물의	-15125
▁여겼다	-15126
권에서는	-15127
▁아날로그	-15128
▁앨범으로	-15129
▁이번에는	-15130
cc	-15131
노와	-15132
망은	-15133
유예	-15134
판매	-15135
▁부도	-15136
▁서적	-15137
족으로	-15138
▁안티오	-15139
▁컨트리	-15140
▁대한민국을	-15141
코타	-15142
▁개항	-15143
▁김제	-15144
브리엘	-15145
▁무궁화	-15146
▁사용되어	-15147
▁작품에서	-15148
▁전반적인	-15149
▁투수이다	-15150
양과	-15151
청과	-15152
▁새긴	-15153
▁오로	-15154
▁오크	-15155
▁온건	-15156
▁용암	-15157
▁대표를	-15158
▁보내어	-15159
▁연이어	-15160
▁전화를	-15161
▁조직에	-15162
▁흐른다	-15163
▁만들어져	-15164
▁애리조나	-15165
여우	-15166
▁노조	-15167
▁봉기	-15168
▁왼손	-15169
▁이겨	-15170
▁잠정	-15171
▁전함	-15172
정이다	-15173
▁그래도	-15174
▁당선된	-15175
▁비주얼	-15176
▁전자의	-15177
▁필리프	-15178
세기까지	-15179
▁1848	-15180
▁예전에는	-15181
▁인공지능	-15182
▁업그레이드	-15183
ix	-15184
▁맘	-15185
▁뷔	-15186
니치	-15187
▁고쿠	-15188
▁광명	-15189
▁다듬	-15190
▁대영	-15191
▁모색	-15192
▁모의	-15193
▁사쓰	-15194
▁승무	-15195
▁일일	-15196
▁접한	-15197
스터의	-15198
▁끼쳤다	-15199
▁반응은	-15200
▁것입니다	-15201
▁에스페란	-15202
▁늙	-15203
▁모자	-15204
이트는	-15205
▁MTV	-15206
▁아랍에미	-15207
▁주인공으로	-15208
위성	-15209
재단	-15210
▁On	-15211
▁결선	-15212
▁리바	-15213
▁압력	-15214
▁이송	-15215
▁어렵게	-15216
▁종류는	-15217
▁지구가	-15218
▁참가할	-15219
견이	-15220
처가	-15221
▁공백	-15222
▁기와	-15223
▁로버	-15224
▁장미	-15225
▁전담	-15226
▁너무나	-15227
▁명확히	-15228
▁받았던	-15229
▁생명을	-15230
▁속이다	-15231
▁표현은	-15232
▁헬리콥	-15233
▁클리블랜드	-15234
월호	-15235
▁것의	-15236
▁신정	-15237
▁자산	-15238
▁헬레	-15239
▁사이로	-15240
▁플래시	-15241
▁작용하는	-15242
▁해당되는	-15243
▁별세	-15244
▁산둥	-15245
▁씨는	-15246
층에서	-15247
▁감옥에	-15248
▁따왔다	-15249
▁여파로	-15250
▁지방은	-15251
조각	-15252
ica	-15253
▁CR	-15254
▁비늘	-15255
▁치루	-15256
▁치세	-15257
▁검사를	-15258
▁기법을	-15259
▁달러에	-15260
▁리그로	-15261
▁밴쿠버	-15262
▁정이다	-15263
▁1882	-15264
▁애틀랜타	-15265
▁받아들였다	-15266
▁우즈베키스탄	-15267
료는	-15268
▁철폐	-15269
▁품질	-15270
▁과도한	-15271
▁불안정	-15272
▁유지할	-15273
▁형식은	-15274
▁에콰도르	-15275
▁조별리그	-15276
▁클라우드	-15277
▁효과적인	-15278
루냐	-15279
▁김원	-15280
▁부합	-15281
▁산을	-15282
▁오류	-15283
▁평의	-15284
리라는	-15285
▁낳는다	-15286
▁서로의	-15287
▁들어가게	-15288
▁효율적으로	-15289
▁후지와라노	-15290
양성	-15291
▁나비	-15292
▁의문	-15293
▁이고	-15294
▁조국	-15295
▁포수	-15296
▁견해가	-15297
▁고양시	-15298
▁득표율	-15299
▁방사능	-15300
▁생성된	-15301
▁지닌다	-15302
▁토리노	-15303
▁무대에서	-15304
ug	-15305
년제	-15306
절에	-15307
티를	-15308
▁염기	-15309
▁존슨	-15310
▁출석	-15311
▁휴식	-15312
▁손실을	-15313
▁스포르	-15314
▁장애인	-15315
▁영향력이	-15316
▁합류했다	-15317
▁만들어진다	-15318
링턴	-15319
쿠니	-15320
▁많지	-15321
▁자란	-15322
▁자크	-15323
▁찍은	-15324
▁카시	-15325
▁해남	-15326
▁국민당	-15327
▁뉴캐슬	-15328
▁마르코	-15329
▁우려가	-15330
▁프란치	-15331
▁물리치고	-15332
EG	-15333
서인	-15334
▁습윤	-15335
▁학원	-15336
시이다	-15337
▁가로지	-15338
▁청동기	-15339
▁컴퓨팅	-15340
▁하나로서	-15341
건축	-15342
름의	-15343
제곱	-15344
▁연인	-15345
▁유의	-15346
테이너	-15347
▁노래로	-15348
▁노르망	-15349
▁비영리	-15350
날레	-15351
티코	-15352
▁델타	-15353
▁스칸	-15354
▁열을	-15355
▁투여	-15356
▁않다고	-15357
▁위치가	-15358
▁의문을	-15359
▁국무총리	-15360
▁시작하고	-15361
▁여겨지고	-15362
▁필리핀의	-15363
배에	-15364
스기	-15365
출판	-15366
후를	-15367
▁가의	-15368
▁개헌	-15369
▁공수	-15370
▁공존	-15371
▁극우	-15372
▁느린	-15373
▁다마	-15374
▁거두며	-15375
▁쓰기도	-15376
▁음악과	-15377
▁오케스트	-15378
▁홍콩에서	-15379
▁개발하였다	-15380
▁알렉산드르	-15381
▁역임했으며	-15382
▁샐	-15383
바퀴	-15384
▁광학	-15385
▁이타	-15386
▁짓는	-15387
▁터보	-15388
▁왕국이	-15389
▁김유	-15390
▁실버	-15391
▁전이	-15392
▁가져다	-15393
▁기술적	-15394
▁도덕적	-15395
▁부인은	-15396
▁정상에	-15397
▁종래의	-15398
▁패배한	-15399
▁최고인민	-15400
길은	-15401
티넘	-15402
하키	-15403
▁노란	-15404
▁세비	-15405
▁소극	-15406
▁신형	-15407
▁위촉	-15408
▁저하	-15409
▁갈리아	-15410
▁규칙을	-15411
▁장르의	-15412
▁밝혀지지	-15413
분해	-15414
▁메뉴	-15415
▁자라는	-15416
▁철학적	-15417
▁서비스가	-15418
▁의회에서	-15419
순의	-15420
창이	-15421
▁Tr	-15422
▁기고	-15423
▁서태	-15424
▁수양	-15425
▁좌측	-15426
▁현을	-15427
화하기	-15428
▁경로를	-15429
▁지리적	-15430
▁체제로	-15431
승은	-15432
▁대각	-15433
▁야외	-15434
▁장흥	-15435
사들은	-15436
▁극장판	-15437
▁급속히	-15438
▁노래가	-15439
▁동등한	-15440
▁분야를	-15441
▁수사를	-15442
▁신학자	-15443
▁원칙을	-15444
▁경상북도의	-15445
솔리	-15446
장로	-15447
▁가자	-15448
▁백두	-15449
▁보증	-15450
▁중형	-15451
▁중부에	-15452
▁플라이	-15453
▁지배하는	-15454
▁독립적으로	-15455
▁프로듀서이다	-15456
공연	-15457
칼리	-15458
▁간이	-15459
▁브랜	-15460
▁사거리	-15461
▁주민의	-15462
▁부족으로	-15463
▁적용된다	-15464
독을	-15465
불이	-15466
▁고창	-15467
▁천천	-15468
▁의석을	-15469
▁강조하는	-15470
슈퍼	-15471
절의	-15472
▁91	-15473
▁류큐	-15474
▁모호	-15475
▁부에	-15476
▁상공	-15477
▁혼성	-15478
나에서	-15479
▁개인적	-15480
▁성향을	-15481
▁아키타	-15482
▁학교는	-15483
▁국내에서	-15484
▁말미암아	-15485
▁의미이다	-15486
▁청나라의	-15487
▁항공모함	-15488
FL	-15489
느러	-15490
▁검거	-15491
▁시어	-15492
▁앞선	-15493
▁유가	-15494
▁그밖에	-15495
▁생전에	-15496
▁z	-15497
등과	-15498
스레	-15499
▁랴오	-15500
▁취업	-15501
▁부모의	-15502
▁알프레	-15503
▁정책의	-15504
▁크레이	-15505
▁흥미를	-15506
고등법원	-15507
▁어항이다	-15508
▁정상적인	-15509
반도	-15510
승지	-15511
히게	-15512
▁우파	-15513
▁자결	-15514
▁저격	-15515
▁채취	-15516
▁피핀	-15517
가이자	-15518
▁인간과	-15519
▁진행을	-15520
▁흩어져	-15521
▁|	-15522
티시	-15523
▁누이	-15524
▁살라	-15525
▁이븐	-15526
▁구하기	-15527
▁국적을	-15528
▁단어가	-15529
▁영역에서	-15530
▁지원하기	-15531
▁스크린도어가	-15532
해석	-15533
▁GN	-15534
▁면제	-15535
▁시직	-15536
▁차츰	-15537
센터는	-15538
▁방안을	-15539
▁전하고	-15540
▁공항으로	-15541
유사	-15542
▁감수	-15543
▁김지	-15544
▁단원	-15545
▁다양체	-15546
▁발달한	-15547
▁발표하여	-15548
▁안정적인	-15549
▁전해지는	-15550
▁컴퓨터의	-15551
▁발전하였다	-15552
MB	-15553
세손	-15554
▁격추	-15555
▁드레	-15556
▁생겼	-15557
▁정자	-15558
▁넘어서	-15559
▁논쟁을	-15560
▁비롯된	-15561
마뱀붙이	-15562
▁비판하는	-15563
▁스타일을	-15564
▁대체되었다	-15565
ake	-15566
▁입양	-15567
▁절단	-15568
▁타구	-15569
▁놀라운	-15570
▁스리랑	-15571
▁시장이	-15572
▁어느날	-15573
▁체제의	-15574
들이었다	-15575
▁튼	-15576
▁언니	-15577
▁찬양	-15578
직하고	-15579
▁되어야	-15580
▁모니터	-15581
▁원리를	-15582
▁저항을	-15583
▁NASA	-15584
▁대항하여	-15585
광은	-15586
광이	-15587
등은	-15588
처의	-15589
out	-15590
▁명사	-15591
▁목판	-15592
▁선동	-15593
▁송신	-15594
▁이양	-15595
가능한	-15596
▁가리는	-15597
▁자메이	-15598
▁죽음의	-15599
▁코드는	-15600
지역에서	-15601
▁히틀러는	-15602
▁스트라이커	-15603
US	-15604
벨라	-15605
재와	-15606
▁느낄	-15607
▁처럼	-15608
주머니	-15609
▁못했던	-15610
▁쥬	-15611
바가	-15612
▁아메	-15613
▁남았다	-15614
▁본부를	-15615
▁어워드	-15616
▁콘크리트	-15617
▁헥	-15618
강한	-15619
니코	-15620
부리	-15621
사용	-15622
치히	-15623
품은	-15624
▁송파	-15625
▁유료	-15626
▁정몽	-15627
▁지극	-15628
▁공장을	-15629
▁암컷은	-15630
▁의지를	-15631
▁차례에	-15632
▁헤이안	-15633
적이라고	-15634
▁한국철도	-15635
방과	-15636
죄로	-15637
▁광양	-15638
▁러일	-15639
▁식당	-15640
▁후배	-15641
사에게	-15642
저기압	-15643
ence	-15644
▁유닉스	-15645
▁작전은	-15646
했습니다	-15647
▁대한항공	-15648
상도	-15649
▁AV	-15650
분부터	-15651
▁같다고	-15652
▁바탕에	-15653
▁연안에	-15654
▁정보는	-15655
▁고원	-15656
▁볼프	-15657
고에서	-15658
▁API	-15659
▁빠졌다	-15660
▁소유한	-15661
▁예선에	-15662
▁정당이	-15663
▁지진이	-15664
▁패했다	-15665
▁해병대	-15666
▁성씨이다	-15667
추진	-15668
히지	-15669
▁가신	-15670
▁남미	-15671
▁접수	-15672
로스는	-15673
트레이	-15674
▁남성의	-15675
▁제품의	-15676
▁직위를	-15677
타고	-15678
ase	-15679
▁국한	-15680
▁단층	-15681
▁우아	-15682
▁입국	-15683
▁등에게	-15684
▁산업은	-15685
▁온도는	-15686
▁연구에서	-15687
세력	-15688
시기	-15689
오에	-15690
▁..	-15691
▁고든	-15692
▁모른	-15693
▁선원	-15694
▁선행	-15695
▁질문	-15696
가지로	-15697
되어서	-15698
▁ATP	-15699
▁연맹이	-15700
▁은하의	-15701
▁전략적	-15702
▁지붕은	-15703
▁시설관리	-15704
▁일본군은	-15705
▁통과하는	-15706
불의	-15707
▁강대	-15708
▁다크	-15709
▁대역	-15710
▁반감	-15711
▁복용	-15712
▁시부	-15713
▁하치	-15714
▁교회가	-15715
▁사무를	-15716
▁질문에	-15717
▁실시하는	-15718
▁깜	-15719
미노	-15720
미래	-15721
지부	-15722
▁가산	-15723
▁루시	-15724
▁재일	-15725
▁죽기	-15726
▁카사	-15727
▁프롤	-15728
▁휘말	-15729
▁희곡	-15730
물리학	-15731
▁ABC	-15732
▁게릴라	-15733
▁공격은	-15734
▁남동생	-15735
▁맡기도	-15736
▁개발했다	-15737
▁보호하는	-15738
▁아직까지	-15739
▁오카야마	-15740
언은	-15741
지정	-15742
▁군부	-15743
▁군산	-15744
▁도네	-15745
▁사의	-15746
▁수락	-15747
▁지류	-15748
▁혼동	-15749
▁공로를	-15750
▁명령에	-15751
▁수업을	-15752
▁자기가	-15753
▁중심을	-15754
▁질량을	-15755
▁종료되었다	-15756
▁찔	-15757
천사	-15758
ont	-15759
▁레온	-15760
▁방화	-15761
▁산요	-15762
▁인명	-15763
▁장제	-15764
▁표를	-15765
▁항목	-15766
시켜야	-15767
▁강화를	-15768
▁나이는	-15769
▁대륙의	-15770
▁상에서	-15771
▁세우는	-15772
▁소식이	-15773
▁전쟁과	-15774
▁다이아몬드	-15775
례로	-15776
유와	-15777
코딩	-15778
황은	-15779
▁매수	-15780
▁배수	-15781
▁파는	-15782
▁폭이	-15783
테리아	-15784
▁1-2	-15785
▁공군의	-15786
▁관료로	-15787
▁모르고	-15788
▁믿었다	-15789
▁법칙을	-15790
▁신앙을	-15791
▁의원의	-15792
▁영국으로	-15793
:2	-15794
az	-15795
oh	-15796
두의	-15797
-13	-15798
▁다윈	-15799
▁부시	-15800
▁유비	-15801
▁토크	-15802
▁항쟁	-15803
▁후세	-15804
지거나	-15805
▁이론이	-15806
▁서울중앙	-15807
▁여겨졌다	-15808
▁정치가이다	-15809
▁친일반민족행위진상규명	-15810
▁면을	-15811
▁번영	-15812
▁삼척	-15813
▁염려	-15814
▁원통	-15815
▁작다	-15816
▁잠깐	-15817
▁정인	-15818
▁주조	-15819
▁걸쳐서	-15820
▁조선후	-15821
▁못했지만	-15822
▁릭	-15823
천과	-15824
▁놓인	-15825
▁보리	-15826
▁요인	-15827
펜하겐	-15828
▁구단은	-15829
음으로써	-15830
▁문신이다	-15831
▁일으킨다	-15832
St	-15833
브가	-15834
ere	-15835
▁더빙	-15836
▁영장	-15837
▁징병	-15838
▁규모를	-15839
▁기준이	-15840
▁마르세	-15841
▁부근의	-15842
▁외국어	-15843
▁팰	-15844
정권	-15845
훈이	-15846
▁노이	-15847
▁동정	-15848
▁서머	-15849
▁스텔	-15850
▁저는	-15851
▁보이게	-15852
▁비교해	-15853
▁사쿠라	-15854
▁영어를	-15855
▁프랑스를	-15856
▁미드필더로	-15857
PC	-15858
▁j	-15859
가며	-15860
공파	-15861
현실	-15862
▁실무	-15863
▁자회	-15864
▁컸다	-15865
루시아	-15866
▁단계에	-15867
▁항복을	-15868
기동	-15869
말의	-15870
약이	-15871
택은	-15872
토르	-15873
▁AN	-15874
▁Sc	-15875
▁전복	-15876
▁지수	-15877
▁칼로	-15878
▁해저	-15879
▁다목적	-15880
▁유럽에	-15881
▁장소를	-15882
▁체제가	-15883
▁카메룬	-15884
▁귀국하여	-15885
▁허리케인	-15886
▁분리되었다	-15887
궁에	-15888
트넘	-15889
▁SE	-15890
▁무작	-15891
▁빌라	-15892
▁해왕	-15893
▁자료는	-15894
▁자유의	-15895
▁있어서의	-15896
▁앰	-15897
▁기수	-15898
▁높여	-15899
▁루카	-15900
▁반포	-15901
▁비엔	-15902
▁정성	-15903
▁펜싱	-15904
로이드	-15905
전까지	-15906
ream	-15907
▁가솔린	-15908
▁영원히	-15909
▁팬들의	-15910
▁것이므로	-15911
▁배우이자	-15912
료가	-15913
타워	-15914
▁al	-15915
▁맡는	-15916
▁집회	-15917
▁현악	-15918
▁현종	-15919
▁근거가	-15920
▁등판해	-15921
▁지상파	-15922
▁학생이	-15923
▁진출한다	-15924
마귀	-15925
정상	-15926
조리	-15927
츠크	-15928
▁조로	-15929
▁회상	-15930
단에는	-15931
▁미루어	-15932
▁분포하고	-15933
▁현대자동차	-15934
.)	-15935
미국	-15936
있어	-15937
함수	-15938
▁나갈	-15939
▁렌즈	-15940
▁산은	-15941
▁샌드	-15942
▁접해	-15943
자에서	-15944
▁따르고	-15945
▁모른다	-15946
▁모았다	-15947
▁제한을	-15948
▁사용자의	-15949
길에	-15950
▁국외	-15951
▁아소	-15952
▁클러	-15953
▁시이다	-15954
▁옮겨졌다	-15955
▁쿠데타를	-15956
공과	-15957
체계	-15958
▁미륵	-15959
▁산에	-15960
▁세레	-15961
▁앙골	-15962
▁제너	-15963
▁트렌	-15964
는다는	-15965
들처럼	-15966
▁검찰은	-15967
▁교회에	-15968
▁남자가	-15969
▁조반니	-15970
▁책으로	-15971
▁러시아와	-15972
▁경복	-15973
▁침묵	-15974
▁구성은	-15975
▁병력이	-15976
▁사형을	-15977
▁성남시	-15978
▁항성의	-15979
▁우루과이	-15980
초가	-15981
▁강철	-15982
▁도래	-15983
▁선천	-15984
▁이현	-15985
▁경력이	-15986
▁교사로	-15987
▁시신을	-15988
▁직책을	-15989
▁독일군의	-15990
▁완벽하게	-15991
▁제정되었다	-15992
법률	-15993
브스	-15994
▁맛을	-15995
▁모범	-15996
▁원활	-15997
▁인재	-15998
운드의	-15999
자리는	-16000
▁맡았던	-16001
▁별명이	-16002
▁비중이	-16003
▁생활에	-16004
▁조지프	-16005
▁기념하기	-16006
▁슛	-16007
기일	-16008
버의	-16009
▁관동	-16010
▁명인	-16011
▁그만큼	-16012
▁지시를	-16013
▁최연소	-16014
▁화학적	-16015
선거에서	-16016
▁with	-16017
▁시작되었고	-16018
▁유래하였다	-16019
▁국가대표팀은	-16020
근을	-16021
부작	-16022
▁국적	-16023
▁동력	-16024
▁오락	-16025
▁통보	-16026
학과에	-16027
▁상소를	-16028
▁적었다	-16029
▁소설이다	-16030
▁프랑스로	-16031
▁전반적으로	-16032
▁딕	-16033
유도	-16034
▁산성	-16035
나라가	-16036
▁가공의	-16037
▁공간에	-16038
▁다리가	-16039
▁밖에서	-16040
▁자원을	-16041
▁프로모	-16042
▁황제를	-16043
▁수행하고	-16044
▁지역에는	-16045
▁챙	-16046
개씩	-16047
내려	-16048
막이	-16049
비오	-16050
승이	-16051
심에	-16052
절로	-16053
▁넣는	-16054
▁총을	-16055
▁피할	-16056
일체유	-16057
조사를	-16058
▁함대를	-16059
▁공화국이	-16060
▁유지했다	-16061
▁시리즈이다	-16062
기며	-16063
부아	-16064
살에	-16065
컵을	-16066
▁가중	-16067
▁세바	-16068
갔으나	-16069
헝가리	-16070
▁계속된	-16071
▁디비시	-16072
▁병사를	-16073
▁여지가	-16074
▁운행이	-16075
▁전역을	-16076
▁참석한	-16077
▁철학을	-16078
▁프레데	-16079
▁가르침을	-16080
▁결합하여	-16081
▁실시했다	-16082
매김	-16083
어리	-16084
위한	-16085
_19	-16086
▁달고	-16087
▁압록	-16088
▁일산	-16089
▁자서	-16090
▁칭송	-16091
▁히사	-16092
년경에	-16093
▁강의를	-16094
▁강하다	-16095
▁그것의	-16096
▁여배우	-16097
▁장점이	-16098
▁철저히	-16099
▁친구가	-16100
▁1868	-16101
▁오케스트라	-16102
▁싱어송라이터이다	-16103
▁찢	-16104
님은	-16105
디로	-16106
▁겪은	-16107
▁매킨	-16108
▁수로	-16109
▁달리는	-16110
▁마천루	-16111
▁무역을	-16112
▁작사가	-16113
▁기관이다	-16114
▁발견되며	-16115
▁보호하고	-16116
▁불과하다	-16117
▁자리하고	-16118
▁코스타리카	-16119
마크	-16120
▁중합	-16121
억원을	-16122
▁요리토	-16123
▁음악이	-16124
▁자료에	-16125
▁핵융합	-16126
▁수행했다	-16127
▁현장에서	-16128
sh	-16129
번지	-16130
사범	-16131
▁닮은	-16132
▁박종	-16133
▁입수	-16134
▁전락	-16135
▁파인	-16136
ical	-16137
▁단계로	-16138
▁월요일	-16139
▁증상을	-16140
▁평가가	-16141
▁시즈오카	-16142
▁연합군은	-16143
▁프랑스령	-16144
당할	-16145
섬은	-16146
▁고토	-16147
▁몽고	-16148
▁비치	-16149
▁신입	-16150
▁장이	-16151
▁정이	-16152
▁특집	-16153
대학을	-16154
마스터	-16155
▁새끼를	-16156
▁주계열	-16157
▁중앙의	-16158
▁들어왔다	-16159
▁담당하였다	-16160
▁프랑스군은	-16161
종교	-16162
irl	-16163
ork	-16164
▁실재	-16165
▁잦은	-16166
▁재상	-16167
▁축성	-16168
▁거리의	-16169
▁사상의	-16170
▁협회의	-16171
▁나타나지	-16172
▁매끄러운	-16173
▁뿐이었다	-16174
▁설립하고	-16175
▁프리메라	-16176
증에	-16177
▁계수	-16178
▁유혹	-16179
▁인과	-16180
▁좌의	-16181
▁포털	-16182
▁동로마	-16183
▁작업은	-16184
▁진출할	-16185
▁훈장을	-16186
▁여겨지는	-16187
우로	-16188
▁교정	-16189
▁매체	-16190
▁했기	-16191
번이나	-16192
▁미야기	-16193
▁원소는	-16194
▁의회에	-16195
▁작품인	-16196
▁어머니를	-16197
▁없었으며	-16198
▁파견하여	-16199
노르	-16200
▁글꼴	-16201
▁이회	-16202
▁일기	-16203
▁금요일	-16204
▁느끼게	-16205
▁단체인	-16206
▁이르게	-16207
▁피라미	-16208
▁설일체유	-16209
▁승리했다	-16210
▁이동하는	-16211
▁코펜하겐	-16212
당시	-16213
도스	-16214
알라	-16215
재산	-16216
카쓰	-16217
int	-16218
▁가옥	-16219
▁누나	-16220
▁맛이	-16221
▁키르	-16222
리라고	-16223
▁만난다	-16224
▁왕조가	-16225
▁한다면	-16226
▁가브리엘	-16227
▁중요하게	-16228
▁지나간다	-16229
▁확정되었다	-16230
끄러	-16231
먼의	-16232
▁CS	-16233
▁간첩	-16234
▁아데	-16235
▁트란	-16236
▁프론	-16237
바이러	-16238
번호는	-16239
▁240	-16240
▁대중의	-16241
▁비중을	-16242
▁들어오는	-16243
레우	-16244
미네	-16245
변속	-16246
어스	-16247
지아	-16248
▁낙하	-16249
개이다	-16250
▁가라앉	-16251
▁방송이	-16252
▁시신은	-16253
▁용어가	-16254
해살이풀	-16255
달의	-16256
▁국장	-16257
▁리옹	-16258
▁반전	-16259
▁번은	-16260
▁상연	-16261
▁허리	-16262
이트를	-16263
▁GDP	-16264
▁않다는	-16265
▁오스카	-16266
▁공장에서	-16267
▁국가대표팀에서	-16268
CC	-16269
복합	-16270
순이	-16271
▁관음	-16272
▁기인	-16273
▁앤더	-16274
▁자책	-16275
▁정전	-16276
▁초고	-16277
선거구	-16278
테스는	-16279
▁각자의	-16280
▁결혼한	-16281
▁단계를	-16282
▁선언을	-16283
▁아이폰	-16284
▁이스탄	-16285
▁중성자	-16286
▁침공을	-16287
▁어머니와	-16288
▁함경북도	-16289
▁승강장으로	-16290
티즌	-16291
▁낮다	-16292
▁동네	-16293
▁청춘	-16294
▁함흥	-16295
프레스	-16296
▁아라곤	-16297
▁이바지	-16298
▁것이라며	-16299
르다	-16300
면적	-16301
ach	-16302
▁돕는	-16303
▁이이	-16304
▁팔작	-16305
▁경제는	-16306
▁멤버가	-16307
▁생방송	-16308
▁아무것도	-16309
▁섀	-16310
▁웬	-16311
▁과장	-16312
▁나노	-16313
▁불분	-16314
▁숨을	-16315
▁조롱	-16316
▁충북	-16317
▁계획의	-16318
▁혁명이	-16319
▁전해지고	-16320
▁효율적인	-16321
IL	-16322
공화	-16323
리마	-16324
박을	-16325
파울	-16326
▁공방	-16327
▁롤링	-16328
▁맞춘	-16329
▁문과	-16330
▁보복	-16331
▁적게	-16332
▁지미	-16333
▁켈트	-16334
▁3.5	-16335
▁계통의	-16336
▁그림은	-16337
▁엘리트	-16338
▁천천히	-16339
▁기록이다	-16340
▁스페인어	-16341
▁출전하지	-16342
지않	-16343
커를	-16344
트레	-16345
파리	-16346
기관이	-16347
전부터	-16348
▁기타를	-16349
▁문화에	-16350
▁증거를	-16351
▁측에서	-16352
▁회사에	-16353
강전에서	-16354
▁둘러싸인	-16355
▁비교하여	-16356
▁사용하게	-16357
▁지칭하는	-16358
관인	-16359
녀의	-16360
▁94	-16361
▁사쿠	-16362
▁장인	-16363
▁팔아	-16364
브리아	-16365
▁두개의	-16366
▁별자리	-16367
▁부르게	-16368
▁스즈키	-16369
▁학명은	-16370
▁모습이다	-16371
▁올림피아	-16372
배의	-16373
유지	-16374
▁Cl	-16375
▁연한	-16376
▁올드	-16377
카에서	-16378
▁수원시	-16379
▁철저한	-16380
▁운행되고	-16381
▁회장으로	-16382
극의	-16383
손이	-16384
터키	-16385
▁농어	-16386
▁얘기	-16387
▁연립	-16388
▁예고	-16389
▁위그	-16390
▁콘솔	-16391
▁해독	-16392
▁호프	-16393
▁교육에	-16394
▁요구에	-16395
▁전투로	-16396
▁주었고	-16397
▁활동의	-16398
시키는데	-16399
▁것이지만	-16400
▁방지하기	-16401
▁사회민주	-16402
▁움직임이	-16403
▁포유류의	-16404
▁활약으로	-16405
▁후계자로	-16406
▁알렉산드리아	-16407
독일	-16408
크레	-16409
테의	-16410
▁시속	-16411
▁전산	-16412
▁조인	-16413
되다가	-16414
▁글로브	-16415
▁안타를	-16416
▁정리에	-16417
▁파일럿	-16418
▁공간으로	-16419
▁공산당의	-16420
▁관련되어	-16421
▁패하였다	-16422
▁후반부터	-16423
▁프로그램인	-16424
▁세인트루이스	-16425
▁댓	-16426
콜라	-16427
▁공성	-16428
▁보석	-16429
▁선봉	-16430
▁화순	-16431
역까지	-16432
▁것과는	-16433
▁공격이	-16434
▁그리는	-16435
▁마이애	-16436
▁수준을	-16437
▁의사소	-16438
▁장관이	-16439
▁받았는데	-16440
▁요구하였다	-16441
▁드리	-16442
▁마가	-16443
▁상해	-16444
▁측이	-16445
▁한큐	-16446
퍼런스	-16447
▁마르틴	-16448
▁맞았다	-16449
▁박사는	-16450
▁연주를	-16451
▁인구밀	-16452
▁대한민국에는	-16453
인당	-16454
지던	-16455
케의	-16456
▁연동	-16457
▁점수	-16458
▁정선	-16459
▁코소	-16460
▁가족이	-16461
▁뿌리를	-16462
▁영국령	-16463
▁지내는	-16464
▁책에서	-16465
▁떡	-16466
나기	-16467
자르	-16468
▁공감	-16469
▁뱅크	-16470
▁치는	-16471
▁포식	-16472
달라는	-16473
▁느끼는	-16474
▁몬테네	-16475
▁파이터	-16476
▁인기있는	-16477
▁활동했으며	-16478
▁갚	-16479
▁굶	-16480
▁쉴	-16481
밴드	-16482
송의	-16483
▁보강	-16484
▁생일	-16485
▁유해	-16486
▁자제	-16487
▁잡는	-16488
였다는	-16489
▁경제를	-16490
▁나타날	-16491
▁도야마	-16492
▁챌린지	-16493
▁클럽에서	-16494
▁최고인민회의	-16495
천년	-16496
▁마다	-16497
▁미라	-16498
▁청룡	-16499
▁폭파	-16500
▁행진	-16501
▁현은	-16502
으려는	-16503
▁가격은	-16504
▁방식에	-16505
▁자유당	-16506
▁호르몬	-16507
이었다는	-16508
▁이용되고	-16509
기갑	-16510
대교	-16511
오자	-16512
지오	-16513
▁Go	-16514
▁기뻐	-16515
▁불행	-16516
▁승용	-16517
▁연희	-16518
겠지만	-16519
▁LED	-16520
▁스테파	-16521
▁쌓았다	-16522
▁안되는	-16523
▁근본적인	-16524
▁전적으로	-16525
▁초등학교다	-16526
▁프란체스코	-16527
▁노스캐롤라이나	-16528
▁났다	-16529
▁준수	-16530
▁헤어	-16531
놓았다	-16532
라디오	-16533
▁산맥의	-16534
▁장기간	-16535
▁회원국	-16536
▁효고현	-16537
하더라도	-16538
▁거리에서	-16539
출력	-16540
▁결핵	-16541
▁무술	-16542
협회의	-16543
▁Mus	-16544
▁상태는	-16545
▁성적이	-16546
▁예정인	-16547
▁대규모의	-16548
▁살아남은	-16549
▁없었다고	-16550
▁자유한국	-16551
▁헛	-16552
시경	-16553
하되	-16554
▁be	-16555
▁몸은	-16556
▁악의	-16557
▁자진	-16558
가들이	-16559
당했고	-16560
익스피	-16561
▁목소리	-16562
▁성적은	-16563
▁언어가	-16564
▁역할로	-16565
▁원소의	-16566
▁원정을	-16567
▁제주시	-16568
▁존재로	-16569
▁그레고리	-16570
포켓몬스터	-16571
▁경기장에서	-16572
▁앗	-16573
약은	-16574
철학	-16575
▁구한	-16576
▁규탄	-16577
▁김인	-16578
▁로얄	-16579
클리드	-16580
▁예선을	-16581
▁종교는	-16582
▁대항하는	-16583
▁포함되지	-16584
▁일제강점기	-16585
▁창설되었다	-16586
문인	-16587
버른	-16588
▁간혹	-16589
▁나간	-16590
▁니혼	-16591
▁맥락	-16592
▁보낼	-16593
▁암석	-16594
▁온다	-16595
▁보고서	-16596
▁메릴랜드	-16597
▁일대에서	-16598
▁장남으로	-16599
▁아프리카의	-16600
렉션	-16601
맥을	-16602
박이	-16603
트르	-16604
▁계단	-16605
▁고아	-16606
▁몰두	-16607
▁필드	-16608
르타뉴	-16609
시켜서	-16610
화되고	-16611
▁끌어들	-16612
▁목록을	-16613
▁바이킹	-16614
▁종이다	-16615
대학으로	-16616
▁분류한다	-16617
▁생각하자	-16618
▁심지어는	-16619
▁아이치현	-16620
▁사운드트랙	-16621
▁향토문화유산	-16622
▁04	-16623
▁경시	-16624
▁그외	-16625
▁부채	-16626
▁서스	-16627
▁슬픔	-16628
▁문학의	-16629
▁불확실	-16630
▁자세를	-16631
▁공화국은	-16632
▁도카이도	-16633
▁동안에는	-16634
▁마오쩌둥	-16635
▁이용하고	-16636
▁괄	-16637
나리	-16638
목과	-16639
트맨	-16640
히데	-16641
▁파벌	-16642
▁폭풍	-16643
▁1.0	-16644
▁반란이	-16645
▁사업이	-16646
▁생각한	-16647
▁아나톨	-16648
▁계속되는	-16649
▁의과대학	-16650
▁차지했고	-16651
▁댈	-16652
니오	-16653
다와	-16654
▁SL	-16655
▁매력	-16656
▁서귀	-16657
러시아	-16658
▁OST	-16659
▁기관이	-16660
▁솔로몬	-16661
▁작가가	-16662
▁프레이	-16663
했음에도	-16664
▁거점으로	-16665
▁결승전에	-16666
▁라이브러	-16667
▁추정되며	-16668
▁플래티넘	-16669
▁활용하여	-16670
▁퐁	-16671
▁홉	-16672
▁날은	-16673
▁배운	-16674
▁세라	-16675
▁송출	-16676
쳤으나	-16677
▁거뒀다	-16678
▁치명적인	-16679
▁시설관리자는	-16680
분한	-16681
비용	-16682
▁불변	-16683
▁패럴	-16684
▁가문이	-16685
▁문화는	-16686
▁없다며	-16687
▁판정을	-16688
▁시즌이다	-16689
▁전달하는	-16690
▁프린스턴	-16691
▁채택되었다	-16692
▁돕기	-16693
▁배에	-16694
▁이범	-16695
▁커서	-16696
▁홈경기	-16697
▁콘서트를	-16698
▁지명되었다	-16699
그마	-16700
요가	-16701
표의	-16702
▁돼지	-16703
▁딸과	-16704
▁법에	-16705
▁별을	-16706
▁조에	-16707
▁파고	-16708
▁판례	-16709
▁헌액	-16710
▁가문을	-16711
▁로스쿨	-16712
▁상업적	-16713
▁예로는	-16714
▁조약은	-16715
스테르담	-16716
▁이탈리아는	-16717
▁쟈	-16718
서비	-16719
ife	-16720
▁격려	-16721
▁하니	-16722
타이드	-16723
▁고유한	-16724
▁순서로	-16725
▁총리로	-16726
▁종목이다	-16727
▁국가대표로	-16728
DA	-16729
리시	-16730
보장	-16731
▁강간	-16732
▁군정	-16733
▁지는	-16734
▁직책	-16735
▁파란	-16736
▁단체는	-16737
▁로마로	-16738
▁서로를	-16739
▁서양의	-16740
▁이기고	-16741
▁인정을	-16742
▁지위에	-16743
▁체결된	-16744
▁싼	-16745
동원	-16746
변호	-16747
사유	-16748
▁악마	-16749
▁은혜	-16750
▁마스크	-16751
▁브르타뉴	-16752
▁이론에서	-16753
▁애니메이션이다	-16754
보리	-16755
저의	-16756
▁재선	-16757
로스의	-16758
시간은	-16759
▁2~3	-16760
▁밝혀진	-16761
▁세월호	-16762
▁시절을	-16763
▁장치가	-16764
▁클레이	-16765
방향으로	-16766
▁명령했다	-16767
▁투표에서	-16768
▁프로그래머	-16769
나시	-16770
진군	-16771
표로	-16772
_21	-16773
▁소울	-16774
진에서	-16775
ivers	-16776
▁미야자키	-16777
▁촛	-16778
선형	-16779
직이	-16780
▁너머	-16781
▁점거	-16782
▁중등	-16783
▁하키	-16784
▁한해	-16785
강으로	-16786
났으나	-16787
하이드	-16788
▁기관의	-16789
▁현대에	-16790
▁광범위하게	-16791
▁설계되었다	-16792
격은	-16793
분간	-16794
스투	-16795
질에	-16796
▁고이	-16797
▁시몬	-16798
▁위를	-16799
▁펑크	-16800
약으로	-16801
▁가깝게	-16802
▁광고를	-16803
▁기원은	-16804
▁라파엘	-16805
▁밀도가	-16806
▁서부의	-16807
▁시대는	-16808
▁회장이	-16809
▁지도자로	-16810
▁표기한다	-16811
▁국제적으로	-16812
네티	-16813
패의	-16814
oll	-16815
▁NT	-16816
▁급히	-16817
▁사슴	-16818
▁산시	-16819
▁손잡	-16820
▁증폭	-16821
▁하급	-16822
클레오	-16823
▁빨간색	-16824
▁팀이다	-16825
▁행위는	-16826
▁장소에서	-16827
▁주변에는	-16828
▁우크라이나의	-16829
슨을	-16830
택이	-16831
▁금호	-16832
▁바흐	-16833
▁세습	-16834
▁양측	-16835
▁어업	-16836
▁장안	-16837
▁지자	-16838
▁키스	-16839
그리스	-16840
사로서	-16841
지라도	-16842
▁1-1	-16843
▁레드삭	-16844
▁소피아	-16845
▁의약품	-16846
▁자녀를	-16847
▁자료로	-16848
▁추정하고	-16849
▁출연한다	-16850
하였으므로	-16851
▁괌	-16852
복음	-16853
▁고딕	-16854
▁넓고	-16855
▁비전	-16856
▁아빠	-16857
▁청색	-16858
두었다	-16859
▁나무를	-16860
▁비율을	-16861
▁선거인	-16862
▁이적하여	-16863
▁경제적으로	-16864
▁선고받았다	-16865
▁민족문제연구소의	-16866
도라	-16867
든다	-16868
증과	-16869
회원	-16870
▁과테	-16871
▁하비	-16872
▁해부	-16873
산이다	-16874
▁3-1	-16875
▁가이드	-16876
▁공격할	-16877
▁되므로	-16878
▁찬사를	-16879
▁카이로	-16880
▁태생의	-16881
▁아이들을	-16882
▁없으므로	-16883
▁공개적으로	-16884
놀이	-16885
원자	-16886
▁IN	-16887
▁김명	-16888
▁노바	-16889
▁부다	-16890
▁상소	-16891
▁캄파	-16892
▁후예	-16893
지역을	-16894
▁머리가	-16895
▁사실에	-16896
▁음반에	-16897
른베르크	-16898
지역으로	-16899
▁1892	-16900
▁보이지만	-16901
▁분류하고	-16902
▁공헌하였다	-16903
nt	-16904
▁α	-16905
ich	-16906
▁CM	-16907
▁답변	-16908
▁만드	-16909
▁박람	-16910
▁분지	-16911
▁황도	-16912
기면서	-16913
누스의	-16914
스트에	-16915
▁북동부	-16916
▁북유럽	-16917
▁거치면서	-16918
▁성장했다	-16919
▁줄어들었다	-16920
▁취득하였다	-16921
▁썬	-16922
득점	-16923
랑의	-16924
방정	-16925
서원	-16926
수소	-16927
ous	-16928
▁강행	-16929
▁궁전	-16930
▁아레	-16931
▁와인	-16932
▁절벽	-16933
▁차관	-16934
▁히라	-16935
▁경주시	-16936
▁급격한	-16937
▁기록과	-16938
▁등지에	-16939
▁볼티모	-16940
▁시위가	-16941
▁아레나	-16942
▁참여를	-16943
▁포로가	-16944
FF	-16945
▁미세	-16946
▁백과	-16947
▁소외	-16948
▁수복	-16949
▁재래	-16950
▁증진	-16951
▁진한	-16952
▁페니	-16953
▁달했다	-16954
시키면서	-16955
▁벌어지는	-16956
것은	-16957
훈의	-16958
▁김광	-16959
▁럭비	-16960
▁음모	-16961
▁인산	-16962
도서관	-16963
역이며	-16964
▁극도로	-16965
▁목소리가	-16966
▁스페인은	-16967
▁존재했다	-16968
벨트	-16969
언이	-16970
쿠는	-16971
▁말도	-16972
▁바우	-16973
▁집정	-16974
▁코호	-16975
▁퇴장	-16976
▁구성을	-16977
▁도르트	-16978
▁레이싱	-16979
▁미래에	-16980
▁요청에	-16981
▁추가된	-16982
법원에서	-16983
▁벨라루스	-16984
▁네트워크를	-16985
소시	-16986
▁Gr	-16987
▁거창	-16988
▁물과	-16989
▁사인	-16990
문화의	-16991
▁3.0	-16992
▁샌디에	-16993
▁연설을	-16994
▁중요시	-16995
▁집합을	-16996
▁1888	-16997
▁국가보안	-16998
▁없었지만	-16999
▁주인공이	-17000
▁활동으로	-17001
▁공개하였다	-17002
▁반대하였다	-17003
로맨	-17004
▁실리	-17005
▁재차	-17006
▁게이오	-17007
▁노래의	-17008
▁스타일의	-17009
Co	-17010
광년	-17011
녀가	-17012
조치	-17013
▁극락	-17014
▁단말	-17015
▁색이	-17016
▁외래	-17017
▁인력	-17018
▁정동	-17019
▁천왕	-17020
olog	-17021
▁길이를	-17022
▁당국은	-17023
▁은메달	-17024
▁전원이	-17025
▁파푸아	-17026
▁피해자	-17027
▁스페이스	-17028
▁자유민주	-17029
HC	-17030
들리	-17031
만년	-17032
척이	-17033
턴이	-17034
▁돋보	-17035
▁블레	-17036
▁삼중	-17037
▁테일	-17038
▁하르	-17039
▁블레이	-17040
▁작가로	-17041
▁증거는	-17042
▁테네시	-17043
▁행동이	-17044
화하였다	-17045
▁1893	-17046
▁무시하고	-17047
▁유래되었다	-17048
!!	-17049
▁쪼	-17050
분열	-17051
▁대왕	-17052
▁부당	-17053
▁온난	-17054
▁읽는	-17055
▁가지지	-17056
▁간사이	-17057
▁걸리는	-17058
▁머리카	-17059
▁이동할	-17060
▁종류로	-17061
▁구성하고	-17062
▁살펴보면	-17063
▁프로세서	-17064
▁도서관이다	-17065
▁프란치스코	-17066
OK	-17067
▁쿡	-17068
▁킴	-17069
개미	-17070
세르	-17071
스콘	-17072
하길	-17073
▁꿈꾸	-17074
▁남하	-17075
▁복권	-17076
▁부평	-17077
▁스킴	-17078
▁파병	-17079
▁기호는	-17080
▁시간과	-17081
▁의회가	-17082
▁전기를	-17083
▁국회에서	-17084
▁소재지는	-17085
공주	-17086
모스	-17087
줄기	-17088
컴퓨	-17089
▁EX	-17090
▁경호	-17091
▁노인	-17092
▁사영	-17093
▁상기	-17094
▁섬이	-17095
▁약칭	-17096
▁탈취	-17097
▁폐렴	-17098
청으로	-17099
▁SNS	-17100
▁것들을	-17101
▁남동쪽	-17102
▁메시지	-17103
▁무솔리	-17104
▁바다를	-17105
▁방어를	-17106
▁에너지의	-17107
속도	-17108
짐에	-17109
통치	-17110
폐합	-17111
▁농경	-17112
▁도출	-17113
▁도피	-17114
▁요격	-17115
▁조슈	-17116
▁진사	-17117
▁쪽이	-17118
▁커플	-17119
상태가	-17120
▁기관차	-17121
▁기술과	-17122
▁노선에	-17123
▁언론의	-17124
▁인해서	-17125
▁조화를	-17126
▁향상을	-17127
▁화제를	-17128
조판서를	-17129
▁1861	-17130
있지	-17131
▁김민	-17132
▁링크	-17133
▁병자	-17134
▁수교	-17135
▁원반	-17136
▁유러	-17137
▁인가	-17138
▁프렌	-17139
자리가	-17140
▁공세를	-17141
▁구조에	-17142
▁수요가	-17143
▁아들은	-17144
▁주파수	-17145
▁대비하여	-17146
▁제작했다	-17147
어족	-17148
정지	-17149
티와	-17150
▁공휴	-17151
▁동등	-17152
세이다	-17153
슬레틱	-17154
▁내무부	-17155
▁멜버른	-17156
▁성명을	-17157
▁이론과	-17158
▁가능성도	-17159
▁측정하는	-17160
▁플랫폼을	-17161
▁친일반민족행위진상규명위원회가	-17162
~7	-17163
상업	-17164
▁국보	-17165
▁대접	-17166
▁은신	-17167
▁체조	-17168
▁기대를	-17169
▁본인은	-17170
▁손상을	-17171
▁에어로	-17172
해질	-17173
▁늦은	-17174
▁성악	-17175
▁옥타	-17176
▁인자	-17177
▁좀더	-17178
▁찾고	-17179
▁레오폴	-17180
▁모로코	-17181
▁위치로	-17182
▁가톨릭교	-17183
▁발매됐다	-17184
▁연루되어	-17185
▁지점에서	-17186
년엔	-17187
▁kt	-17188
▁공예	-17189
▁끼고	-17190
▁나뭇	-17191
▁안나	-17192
▁이모	-17193
▁성격의	-17194
▁세네갈	-17195
되었음을	-17196
▁JTBC	-17197
공립	-17198
네르	-17199
▁BC	-17200
▁김형	-17201
▁나루	-17202
▁띄는	-17203
▁무언	-17204
▁쏘아	-17205
▁육체	-17206
▁호족	-17207
스터를	-17208
▁비타민	-17209
▁인물은	-17210
▁케네디	-17211
▁인도차이나	-17212
쉬는	-17213
층과	-17214
ign	-17215
▁때를	-17216
▁말과	-17217
▁알맞	-17218
▁카지	-17219
▁교황은	-17220
▁높았다	-17221
▁이사를	-17222
▁취임한	-17223
▁탁월한	-17224
▁푸에르토리	-17225
▁인도네시아의	-17226
▁씻	-17227
전달	-17228
.11	-17229
▁군용	-17230
▁복장	-17231
▁요하	-17232
▁자민	-17233
▁틈을	-17234
▁하코	-17235
분까지	-17236
▁60%	-17237
▁떠난다	-17238
▁하늘을	-17239
▁현대적인	-17240
▁인정받았다	-17241
러드	-17242
▁경인	-17243
▁102	-17244
▁교류를	-17245
▁구조와	-17246
▁설계를	-17247
▁한사람	-17248
▁서비스는	-17249
lay	-17250
▁당내	-17251
▁당황	-17252
▁법은	-17253
▁복선	-17254
▁우두	-17255
학으로	-17256
▁가리켜	-17257
▁과정의	-17258
▁구단이	-17259
▁박영효	-17260
▁브뤼셀	-17261
▁신주쿠	-17262
▁알제리	-17263
▁없으면	-17264
▁1866	-17265
▁무산되었다	-17266
남부	-17267
늦게	-17268
▁공고	-17269
▁타르	-17270
▁헌병	-17271
세포의	-17272
▁구축함	-17273
▁오리온	-17274
▁제안한	-17275
▁1864	-17276
▁피아니스트	-17277
EM	-17278
좌의	-17279
키에	-17280
▁쉽다	-17281
▁히메	-17282
민들이	-17283
웠으며	-17284
▁단체가	-17285
▁본부는	-17286
▁숫자는	-17287
▁시트콤	-17288
▁원칙에	-17289
▁지방도	-17290
▁총애를	-17291
▁사용하던	-17292
서스	-17293
오던	-17294
월이	-17295
임의	-17296
클래	-17297
▁성명	-17298
▁초콜	-17299
에너지	-17300
▁거쳤다	-17301
ction	-17302
▁합격하여	-17303
딘은	-17304
히토	-17305
▁고장	-17306
▁인원	-17307
▁자카	-17308
▁취한	-17309
▁바다의	-17310
▁투쟁을	-17311
▁페트로	-17312
디나비아	-17313
▁도입했다	-17314
▁유명하며	-17315
▁캐릭터가	-17316
▁널	-17317
렌은	-17318
봉의	-17319
▁GO	-17320
▁김윤	-17321
▁냉전	-17322
▁쌍대	-17323
▁아다	-17324
데스는	-17325
▁1/3	-17326
▁두각을	-17327
▁번째는	-17328
▁프랜차	-17329
거리에서	-17330
▁1886	-17331
▁진행한다	-17332
탄이	-17333
▁경과	-17334
▁달에	-17335
▁무서	-17336
▁변광	-17337
▁보자	-17338
▁이메	-17339
▁정제	-17340
▁0.0	-17341
▁개봉된	-17342
▁대사를	-17343
▁버스를	-17344
▁지원이	-17345
▁이산화탄	-17346
▁꽂	-17347
록은	-17348
오게	-17349
인칭	-17350
카에	-17351
-23	-17352
▁관제	-17353
▁아프	-17354
시간에	-17355
▁반정부	-17356
▁적당한	-17357
슈타인은	-17358
▁팔작지붕	-17359
▁파괴되었다	-17360
AD	-17361
로워	-17362
▁거점	-17363
▁물체	-17364
▁오대	-17365
▁첼시	-17366
▁영토로	-17367
▁있듯이	-17368
▁행동은	-17369
▁증가했다	-17370
▁클럽으로	-17371
▁제작하였다	-17372
ah	-17373
포시	-17374
orn	-17375
▁서인	-17376
▁신민	-17377
▁회귀	-17378
▁동서로	-17379
▁사후에	-17380
▁상파울	-17381
▁시기가	-17382
▁제한이	-17383
▁포유류	-17384
▁카탈루냐	-17385
TE	-17386
▁묻혀	-17387
▁미키	-17388
▁신동	-17389
▁종영	-17390
▁충렬	-17391
▁각지에	-17392
▁라오스	-17393
▁몇몇의	-17394
▁빠져나	-17395
▁생산이	-17396
▁아무리	-17397
▁채널을	-17398
▁엑스박스	-17399
▁완성되었다	-17400
통에	-17401
행과	-17402
-09	-17403
▁대포	-17404
▁등단	-17405
▁번도	-17406
▁불필	-17407
▁예가	-17408
▁칼을	-17409
▁파면	-17410
▁1.2	-17411
▁과학의	-17412
▁남편이	-17413
▁아들의	-17414
▁천황은	-17415
ish	-17416
▁고추	-17417
▁더비	-17418
▁민정	-17419
▁섭정	-17420
▁신을	-17421
▁일차	-17422
▁포토	-17423
▁핑크	-17424
▁한달	-17425
▁허블	-17426
부리그	-17427
중으로	-17428
▁공헌을	-17429
▁산스크	-17430
▁인물의	-17431
▁접근을	-17432
▁주장도	-17433
▁결승골을	-17434
▁국민들의	-17435
▁%	-17436
검은	-17437
럴드	-17438
설의	-17439
▁비는	-17440
▁지출	-17441
번지에	-17442
▁문자는	-17443
▁배터리	-17444
▁외부의	-17445
▁정의된	-17446
▁직후에	-17447
▁피렌체	-17448
▁회장은	-17449
▁브루클린	-17450
▁개칭되었다	-17451
런의	-17452
통상	-17453
▁보며	-17454
▁애완	-17455
▁탄자	-17456
▁포럼	-17457
도르프	-17458
왔으나	-17459
▁IOC	-17460
▁글자를	-17461
▁기지를	-17462
▁산으로	-17463
▁투자를	-17464
▁하겠다	-17465
▁적용되는	-17466
움이	-17467
자금	-17468
헌은	-17469
▁고생	-17470
▁귀속	-17471
▁기성	-17472
▁리조	-17473
▁섞여	-17474
▁스와	-17475
▁역도	-17476
▁조회	-17477
▁편이	-17478
▁하프	-17479
▁허드	-17480
▁호쿠	-17481
르면서	-17482
ound	-17483
▁국내에	-17484
▁미토콘	-17485
▁미하일	-17486
▁덧붙였다	-17487
▁명확하게	-17488
▁중앙정보	-17489
▁도둑	-17490
▁말고	-17491
▁명종	-17492
▁사신	-17493
▁입는	-17494
▁혐의	-17495
▁나누는	-17496
▁나트륨	-17497
▁패하여	-17498
▁평안도	-17499
▁1863	-17500
▁가르치는	-17501
▁가와사키	-17502
▁필요하다고	-17503
OW	-17504
신앙	-17505
초와	-17506
▁MB	-17507
▁길다	-17508
▁내며	-17509
▁모신	-17510
바야시	-17511
▁기억을	-17512
▁소재한	-17513
▁케이스	-17514
▁크리에	-17515
▁히틀러	-17516
▁대다수의	-17517
▁익스플로	-17518
▁죽음으로	-17519
▁필수적인	-17520
▁임명되었으며	-17521
부원	-17522
▁갈래	-17523
▁뚫고	-17524
▁도로는	-17525
▁사단은	-17526
▁정리는	-17527
▁제의를	-17528
▁지나면	-17529
▁지분을	-17530
▁철도는	-17531
▁파나마	-17532
▁암스테르담	-17533
▁늪	-17534
네를	-17535
카리	-17536
효소	-17537
-50	-17538
▁거칠	-17539
▁성전	-17540
▁양대	-17541
▁어촌	-17542
▁열려	-17543
▁문자로	-17544
▁스트레	-17545
▁장치는	-17546
절은	-17547
질과	-17548
▁군벌	-17549
▁우세	-17550
▁청계	-17551
▁카테	-17552
선수로	-17553
▁북서쪽	-17554
▁유래는	-17555
▁출전을	-17556
▁하노버	-17557
▁조약으로	-17558
▁룸	-17559
내가	-17560
라니	-17561
섬의	-17562
하루	-17563
▁거세	-17564
▁무안	-17565
▁빅뱅	-17566
▁완결	-17567
▁일각	-17568
▁일화	-17569
▁집착	-17570
▁코시	-17571
▁파직	-17572
▁고향으로	-17573
▁달라진다	-17574
▁주변에서	-17575
▁받아들이지	-17576
▁사이에서는	-17577
▁판매되었다	-17578
▁몹	-17579
그림	-17580
▁다발	-17581
▁결합을	-17582
▁그룹에	-17583
▁논의가	-17584
▁등급을	-17585
▁브리튼	-17586
▁안전을	-17587
공화국의	-17588
▁당선되어	-17589
▁제시하였다	-17590
▁중국에서는	-17591
통과	-17592
▁드라	-17593
▁리에	-17594
▁막스	-17595
▁보나	-17596
▁왕과	-17597
▁원고	-17598
▁카즈	-17599
▁받아서	-17600
▁볼로냐	-17601
▁에드워	-17602
▁연맹의	-17603
▁이뤄진	-17604
▁적외선	-17605
▁후보의	-17606
▁못하도록	-17607
▁아들이며	-17608
▁이베리아	-17609
광의	-17610
료의	-17611
바를	-17612
율과	-17613
▁모금	-17614
▁불완	-17615
▁살짝	-17616
▁타락	-17617
▁평탄	-17618
▁그러다	-17619
▁뛰어넘	-17620
▁사회가	-17621
▁없음을	-17622
▁왕조를	-17623
▁조조는	-17624
▁펠리페	-17625
▁이승만은	-17626
▁네이션스컵	-17627
▁예정이었다	-17628
예수	-17629
천면	-17630
티드	-17631
▁구이	-17632
▁노후	-17633
▁만날	-17634
▁주권	-17635
▁최장	-17636
▁포터	-17637
전에는	-17638
▁몽골의	-17639
▁발전과	-17640
▁사람에	-17641
▁선으로	-17642
▁교회에서	-17643
▁국가들은	-17644
▁임명했다	-17645
라운드에서	-17646
▁시작되었으며	-17647
55	-17648
교사	-17649
뮤직	-17650
배로	-17651
▁Ph	-17652
▁루키	-17653
▁설비	-17654
▁키보	-17655
▁한가	-17656
▁홍수	-17657
프로세	-17658
▁EBS	-17659
▁갈라져	-17660
▁것이기	-17661
▁도메인	-17662
▁독일군은	-17663
▁등에서는	-17664
▁발행하는	-17665
▁거절하였다	-17666
ey	-17667
▁DF	-17668
▁가타	-17669
▁관세	-17670
▁대도	-17671
▁배달	-17672
▁순차	-17673
▁쉽지	-17674
▁네티즌	-17675
▁북서부	-17676
▁오이타	-17677
▁이름도	-17678
▁하워드	-17679
▁1887	-17680
▁가운데에	-17681
▁아프리카계	-17682
▁{	-17683
도상	-17684
명도	-17685
▁그릴	-17686
▁뒤의	-17687
▁싶다	-17688
▁에레	-17689
▁우한	-17690
▁한의	-17691
▁내린다	-17692
▁벌이는	-17693
▁오세아	-17694
▁책임이	-17695
//	-17696
메트	-17697
▁5%	-17698
▁미에	-17699
▁발기	-17700
▁발동	-17701
▁상이	-17702
▁습득	-17703
▁아쉬	-17704
▁주세	-17705
▁추존	-17706
단체의	-17707
민스터	-17708
▁경계에	-17709
▁재료로	-17710
▁물리학자	-17711
▁이해하는	-17712
▁정차한다	-17713
데자	-17714
방법	-17715
보국	-17716
살을	-17717
스페	-17718
와도	-17719
제인	-17720
태가	-17721
und	-17722
▁공명	-17723
▁기해	-17724
▁로페	-17725
▁베풀	-17726
▁아쿠	-17727
▁픽처	-17728
▁화해	-17729
▁AKB	-17730
▁기사가	-17731
▁자격이	-17732
삼국사기	-17733
▁공간이다	-17734
인구	-17735
키타	-17736
▁본인	-17737
▁어우	-17738
▁읽을	-17739
방송을	-17740
버스가	-17741
▁사업은	-17742
군인	-17743
루엔	-17744
쓰고	-17745
트니	-17746
▁김준	-17747
▁남인	-17748
▁둘이	-17749
▁마땅	-17750
▁세분	-17751
▁세트	-17752
▁오기	-17753
▁이씨	-17754
▁TBS	-17755
▁동메달	-17756
▁존재는	-17757
▁측면을	-17758
▁진출하여	-17759
경비	-17760
남은	-17761
막의	-17762
수단	-17763
와서	-17764
좌에	-17765
▁브룩	-17766
▁엔터	-17767
▁여인	-17768
기관인	-17769
레이트	-17770
▁마르티	-17771
▁말에서	-17772
▁북동쪽	-17773
▁일부의	-17774
▁초부터	-17775
▁합의를	-17776
▁드라마는	-17777
▁이승만의	-17778
▁일반적이다	-17779
▁현재까지도	-17780
께끼	-17781
▁번갈	-17782
▁종신	-17783
▁지침	-17784
년마다	-17785
▁겨울에	-17786
▁교황이	-17787
▁그나마	-17788
▁미래를	-17789
일부터는	-17790
▁1876	-17791
▁날카로운	-17792
▁도르트문	-17793
▁산스크리트	-17794
▁이전하였다	-17795
리면	-17796
바와	-17797
탑을	-17798
▁바오	-17799
▁시합	-17800
▁자립	-17801
▁정주	-17802
▁주주	-17803
▁휩싸	-17804
▁결성한	-17805
▁대전차	-17806
▁비정상	-17807
▁않았을	-17808
▁아이스하키	-17809
▁스칸디나비아	-17810
녀로	-17811
다양	-17812
리쿠	-17813
▁막고	-17814
▁부러	-17815
▁서산	-17816
▁용서	-17817
▁호랑	-17818
▁동부의	-17819
▁이같은	-17820
▁일반적	-17821
만으로는	-17822
▁보고서를	-17823
▁후손들이	-17824
▁러시아에서	-17825
▁충청남도의	-17826
공에	-17827
기아	-17828
마사	-17829
▁관상	-17830
▁급증	-17831
▁농부	-17832
▁바와	-17833
▁스퀘	-17834
▁칸의	-17835
▁One	-17836
▁발전소	-17837
▁사명을	-17838
▁삼성전	-17839
▁신청을	-17840
▁집합의	-17841
▁탤런트	-17842
▁대체적으로	-17843
두가	-17844
시다	-17845
▁AE	-17846
▁문경	-17847
▁소행	-17848
▁앞세	-17849
▁위함	-17850
▁혐오	-17851
마리의	-17852
▁뉴욕주	-17853
▁수시로	-17854
▁요제프	-17855
▁정도는	-17856
▁행사가	-17857
▁셰익스피	-17858
▁이들에게	-17859
▁증가하는	-17860
▁영국에서는	-17861
킨스	-17862
▁반죽	-17863
▁번창	-17864
▁불에	-17865
▁조계	-17866
▁직사	-17867
▁참의	-17868
▁치환	-17869
▁탄핵을	-17870
퍼레이션	-17871
▁1850	-17872
▁언어이다	-17873
▁연호이다	-17874
RT	-17875
냐고	-17876
리사	-17877
탑은	-17878
톤은	-17879
▁비싼	-17880
▁상에	-17881
▁송도	-17882
▁원천	-17883
▁코난	-17884
간으로	-17885
라에몽	-17886
야말로	-17887
층에는	-17888
▁USB	-17889
▁규정이	-17890
▁버린다	-17891
▁부르주	-17892
▁연대는	-17893
▁오른손	-17894
▁와일드	-17895
▁혼자서	-17896
▁경기장은	-17897
▁미나모토	-17898
▁애슬레틱	-17899
▁집안에서	-17900
▁체결했다	-17901
▁마린	-17902
▁미셸	-17903
▁서열	-17904
▁임의	-17905
부사로	-17906
운동은	-17907
체제를	-17908
▁모델의	-17909
▁보였고	-17910
▁학문적	-17911
▁관장하는	-17912
▁기념하는	-17913
▁여름에는	-17914
▁입단하여	-17915
▁전라남도의	-17916
달마	-17917
백의	-17918
▁각국	-17919
▁개미	-17920
▁목재	-17921
▁인형	-17922
사단의	-17923
▁111	-17924
▁산이다	-17925
▁이제는	-17926
▁케이프	-17927
월부터는	-17928
처분	-17929
플래	-17930
▁카프	-17931
렸다는	-17932
▁건립된	-17933
▁기여한	-17934
▁노동당	-17935
▁마누엘	-17936
▁방사선	-17937
▁법원은	-17938
▁우루과	-17939
▁이해를	-17940
▁일반화	-17941
▁자국의	-17942
▁정권은	-17943
▁정의에	-17944
▁스테이션	-17945
▁에너지는	-17946
▁폐지하고	-17947
▁할리우드	-17948
몽골	-17949
아니	-17950
암이	-17951
▁나지	-17952
▁마셜	-17953
▁블로	-17954
▁이항	-17955
▁강으로	-17956
▁수차례	-17957
▁정당의	-17958
▁중이며	-17959
▁해에는	-17960
▁강력하게	-17961
▁인터뷰를	-17962
▁출마하여	-17963
빈이	-17964
혁은	-17965
▁긴키	-17966
▁부파	-17967
▁아유	-17968
▁이코	-17969
▁군대와	-17970
▁기반이	-17971
▁소유의	-17972
▁여론이	-17973
▁장관은	-17974
▁유러피언	-17975
▁전성기를	-17976
▁컨테이너	-17977
▁쿠웨이트	-17978
그가	-17979
급은	-17980
ann	-17981
▁구호	-17982
▁싸이	-17983
▁유역	-17984
▁장쑤	-17985
대회에	-17986
▁거쳐서	-17987
▁대체할	-17988
▁산티아	-17989
▁숫자를	-17990
▁예술의	-17991
▁왕조는	-17992
▁이론적	-17993
▁1881	-17994
▁이어지고	-17995
▁배치되었다	-17996
▁뱅	-17997
하곤	-17998
ild	-17999
▁기쁨	-18000
▁밀란	-18001
▁부회	-18002
▁찍어	-18003
▁3-0	-18004
▁다시금	-18005
▁시민의	-18006
▁왕에게	-18007
▁삼층석탑	-18008
▁진행되어	-18009
▁항공사로	-18010
lat	-18011
▁성북	-18012
▁안고	-18013
▁종업	-18014
▁쳤다	-18015
▁헌납	-18016
팀이다	-18017
▁정보의	-18018
▁참가해	-18019
▁통일을	-18020
▁행성은	-18021
▁향토유적	-18022
NG	-18023
군도	-18024
쾌한	-18025
▁DD	-18026
▁감찰	-18027
▁날로	-18028
▁잔존	-18029
공사가	-18030
▁롬바르	-18031
▁아리아	-18032
▁아이콘	-18033
▁우간다	-18034
▁접어들	-18035
▁차세대	-18036
▁트럼프	-18037
▁형제는	-18038
▁데스크톱	-18039
▁북서쪽으로	-18040
기하	-18041
브와	-18042
아마	-18043
자문	-18044
푸르	-18045
_24	-18046
▁가던	-18047
▁객원	-18048
▁광물	-18049
▁미식	-18050
▁인적	-18051
로맨스	-18052
▁감염된	-18053
▁그러면	-18054
▁김옥균	-18055
▁서초구	-18056
▁성능이	-18057
▁유니버설	-18058
▁쑤	-18059
움의	-18060
ook	-18061
▁동문	-18062
▁알폰	-18063
▁이례	-18064
▁줄리	-18065
▁중위	-18066
시설을	-18067
우스와	-18068
장에게	-18069
▁무엇이	-18070
▁특성상	-18071
▁개발하여	-18072
▁교수이다	-18073
▁들어서면서	-18074
▁출간되었다	-18075
링겐	-18076
yst	-18077
▁타케	-18078
▁후진	-18079
▁280	-18080
▁사쓰마	-18081
▁심리적	-18082
▁이름에	-18083
리우스는	-18084
▁콘테스트	-18085
BL	-18086
▁겔	-18087
로폰	-18088
▁길러	-18089
▁대출	-18090
▁사각	-18091
▁재난	-18092
▁Wii	-18093
▁저지대	-18094
▁프리스	-18095
▁1830	-18096
▁삼국시대	-18097
감사	-18098
공개	-18099
참찬	-18100
▁객체	-18101
▁예일	-18102
▁일괄	-18103
▁적분	-18104
▁단체를	-18105
▁형제가	-18106
먼이	-18107
희를	-18108
▁Ad	-18109
▁계의	-18110
▁공자	-18111
▁목회	-18112
문제를	-18113
ance	-18114
▁119	-18115
▁여학생	-18116
▁이사회	-18117
▁점성술	-18118
▁하나씩	-18119
유산으로	-18120
▁구역으로	-18121
▁대량으로	-18122
▁위원으로	-18123
▁과학자들은	-18124
경쟁	-18125
륜구	-18126
사항	-18127
상황	-18128
피오	-18129
▁두지	-18130
▁불화	-18131
▁저자	-18132
▁직행	-18133
시키려	-18134
▁국왕이	-18135
▁사태를	-18136
▁움직일	-18137
▁전자는	-18138
▁종류에	-18139
▁줄이기	-18140
▁출연해	-18141
▁선언하고	-18142
▁설치했다	-18143
▁스스로의	-18144
▁양식으로	-18145
▁캐릭터의	-18146
▁콘스탄티	-18147
▁닷	-18148
ark	-18149
▁남산	-18150
▁미성	-18151
▁실각	-18152
▁직을	-18153
▁혼혈	-18154
▁iOS	-18155
▁벗어난	-18156
▁분쟁을	-18157
▁영토가	-18158
▁입자의	-18159
▁조사한	-18160
▁활동과	-18161
▁돌아가는	-18162
▁발탁되어	-18163
▁×	-18164
선인	-18165
아로	-18166
크리	-18167
▁기니	-18168
▁변동	-18169
▁파우	-18170
▁퍼즐	-18171
게이트	-18172
▁노태우	-18173
▁뜻에서	-18174
▁면적의	-18175
▁보통의	-18176
▁분류는	-18177
지방검찰청	-18178
▁아카데미상	-18179
결한	-18180
안보	-18181
일기	-18182
▁굴복	-18183
▁때와	-18184
▁세븐	-18185
▁전구	-18186
▁판의	-18187
▁한창	-18188
다니며	-18189
분교는	-18190
▁감독에	-18191
▁되어서	-18192
▁파시즘	-18193
▁1891	-18194
▁장악하고	-18195
▁조지아의	-18196
EE	-18197
례가	-18198
시브	-18199
▁No	-18200
▁도스	-18201
▁뛰는	-18202
▁스킬	-18203
▁전멸	-18204
▁전위	-18205
주식회	-18206
▁0.5	-18207
▁가격을	-18208
▁계승한	-18209
▁무너뜨	-18210
▁보기도	-18211
▁아내가	-18212
▁엔진의	-18213
▁집단의	-18214
▁확인된	-18215
▁개최되는	-18216
▁일러스트	-18217
▁자신만의	-18218
아트	-18219
충이	-18220
▁ex	-18221
▁맞춤	-18222
▁발해	-18223
▁채굴	-18224
▁페로	-18225
▁끝나는	-18226
▁범위는	-18227
▁코호몰	-18228
데자네이	-18229
▁인상적인	-18230
▁자리매김	-18231
AE	-18232
▁핼	-18233
▁로비	-18234
▁맹활	-18235
▁속편	-18236
▁의류	-18237
▁총무	-18238
반으로	-18239
회의에	-18240
▁NGC	-18241
▁배치된	-18242
▁부모는	-18243
▁설계된	-18244
▁앨범이	-18245
▁여기는	-18246
▁연대를	-18247
▁방정식을	-18248
▁순서대로	-18249
▁의원으로	-18250
▁정보통신	-18251
주의자들은	-18252
스퍼	-18253
▁감상	-18254
▁교원	-18255
▁꾸며	-18256
▁산호	-18257
▁스텝	-18258
▁오해	-18259
▁참수	-18260
시험에	-18261
온에서	-18262
▁이루지	-18263
▁취리히	-18264
▁행위에	-18265
▁공부했다	-18266
▁구조이다	-18267
▁근거하여	-18268
▁시도했다	-18269
▁아들이자	-18270
성장	-18271
인터	-18272
▁공안	-18273
▁말리	-18274
▁상록	-18275
▁것인가	-18276
▁구멍을	-18277
▁여러번	-18278
▁연맹은	-18279
▁토트넘	-18280
▁편찬한	-18281
▁사라지고	-18282
▁않았는데	-18283
▁인도에서	-18284
골이	-18285
범은	-18286
증권	-18287
▁고다	-18288
▁상고	-18289
▁제인	-18290
▁즐거	-18291
▁지탱	-18292
급으로	-18293
운동가	-18294
▁귀국한	-18295
▁싱글은	-18296
▁의사가	-18297
▁의회를	-18298
▁초콜릿	-18299
▁태양과	-18300
▁헌법의	-18301
▁휴대전	-18302
▁내놓았다	-18303
▁손해배상	-18304
▁캐릭터로	-18305
▁안장되었다	-18306
▁증가하였다	-18307
▁꿰	-18308
사적	-18309
▁베리	-18310
▁이언	-18311
▁일리	-18312
▁구간에	-18313
▁눈물을	-18314
▁독일을	-18315
▁설립을	-18316
▁전국에	-18317
▁역임했고	-18318
▁집행유예	-18319
▁프랜시스	-18320
▁취소되었다	-18321
백은	-18322
.19	-18323
▁과시	-18324
▁동탁	-18325
▁이누	-18326
▁한림	-18327
▁남편의	-18328
▁뒤늦게	-18329
▁부다페	-18330
▁시행된	-18331
▁앤드루	-18332
▁해석을	-18333
▁사용자는	-18334
▁합류하여	-18335
▁원칙적으로	-18336
uc	-18337
데라	-18338
로프	-18339
_22	-18340
▁구에	-18341
▁맹세	-18342
▁복역	-18343
▁성행	-18344
▁아치	-18345
▁일진	-18346
해서는	-18347
▁기준에	-18348
▁세상의	-18349
▁이주한	-18350
▁자연의	-18351
▁힘썼다	-18352
▁라이선스	-18353
▁아오모리	-18354
▁후쿠오카현	-18355
▁크로아티아의	-18356
QL	-18357
다람	-18358
▁넥센	-18359
▁삼림	-18360
▁의령	-18361
▁정경	-18362
▁철강	-18363
▁후작	-18364
▁거두어	-18365
▁만주국	-18366
▁바람이	-18367
▁보이기	-18368
▁1862	-18369
▁말하자면	-18370
▁위치하여	-18371
▁기록하였고	-18372
마케	-18373
불은	-18374
해줄	-18375
▁근래	-18376
학교로	-18377
▁Sch	-18378
▁방대한	-18379
▁쓰이지	-18380
▁옆으로	-18381
▁1865	-18382
▁도미니카	-18383
▁도입하여	-18384
▁조사에서	-18385
코로	-18386
les	-18387
▁끝을	-18388
▁미소	-18389
▁상점	-18390
▁어리	-18391
▁죽여	-18392
하지도	-18393
▁기원을	-18394
▁선택한	-18395
▁연주자	-18396
▁처벌을	-18397
▁항공은	-18398
▁종목에서	-18399
▁처리하는	-18400
삼진	-18401
확인	-18402
▁갖춰	-18403
▁대에	-18404
▁신종	-18405
▁안드	-18406
▁최남	-18407
▁퇴직	-18408
▁포격	-18409
나가의	-18410
시간을	-18411
▁간행된	-18412
▁구분할	-18413
▁기술로	-18414
▁기초한	-18415
▁요소로	-18416
▁카타르	-18417
▁멤버이다	-18418
▁생성되는	-18419
BI	-18420
덕은	-18421
들고	-18422
채의	-18423
▁기법	-18424
▁다행	-18425
▁비대	-18426
▁요절	-18427
▁일요	-18428
▁자와	-18429
▁편안	-18430
▁경우와	-18431
▁국내의	-18432
▁시장은	-18433
▁영국군	-18434
▁겨울에는	-18435
▁대학으로	-18436
▁이어주는	-18437
▁테스트를	-18438
▁멍	-18439
배는	-18440
▁나일	-18441
▁네모	-18442
▁발착	-18443
▁신봉	-18444
스키가	-18445
▁705	-18446
▁가르쳐	-18447
▁두꺼운	-18448
▁비해서	-18449
▁자리는	-18450
▁장면은	-18451
▁미쓰비시	-18452
▁선출하는	-18453
▁피츠버그	-18454
▁개편되었다	-18455
▁아이디어를	-18456
▁건널	-18457
▁굴절	-18458
▁깃털	-18459
▁능동	-18460
▁섞어	-18461
▁식사	-18462
▁아와	-18463
▁온라	-18464
▁월트	-18465
▁끝난다	-18466
▁맡는다	-18467
▁법안을	-18468
▁부부는	-18469
▁북한은	-18470
▁스칼라	-18471
▁앨리스	-18472
▁연락을	-18473
▁영역은	-18474
▁주지사	-18475
▁하늘의	-18476
▁해준다	-18477
▁프로세스	-18478
▁공격하였다	-18479
▁유지하였다	-18480
▁가톨릭교회의	-18481
궁은	-18482
아에	-18483
투로	-18484
▁과연	-18485
▁마비	-18486
▁보행	-18487
▁우체	-18488
▁점검	-18489
▁교회와	-18490
▁믿는다	-18491
▁사신을	-18492
▁학교가	-18493
▁일치한다	-18494
군주	-18495
배치	-18496
세키	-18497
치면	-18498
타도	-18499
▁도청	-18500
▁문무	-18501
▁실은	-18502
▁펼친	-18503
▁개그맨	-18504
▁극작가	-18505
▁루돌프	-18506
▁조약의	-18507
▁표현의	-18508
▁라틴어로	-18509
▁방송에서	-18510
▁생각하여	-18511
▁유클리드	-18512
▁한국독립	-18513
물리	-18514
▁도사	-18515
▁막대	-18516
▁설문	-18517
▁수염	-18518
▁우치	-18519
▁주먹	-18520
대한민	-18521
클라호	-18522
▁당하는	-18523
▁스크립	-18524
▁지정한	-18525
▁충돌이	-18526
▁클리어	-18527
▁혜택을	-18528
▁레스토랑	-18529
▁반대하여	-18530
▁제시했다	-18531
담당	-18532
▁박성	-18533
▁색의	-18534
▁최강	-18535
▁타지	-18536
▁공적을	-18537
▁로맨틱	-18538
▁이보다	-18539
▁자유와	-18540
▁적용된	-18541
▁학생을	-18542
▁화재로	-18543
아메리칸	-18544
▁대학교와	-18545
▁수수께끼	-18546
▁조직하여	-18547
기만	-18548
남에	-18549
▁나바	-18550
▁나빠	-18551
▁너비	-18552
▁니켈	-18553
▁반역	-18554
▁수목	-18555
▁오산	-18556
▁칸은	-18557
▁능력은	-18558
▁방영한	-18559
▁수단을	-18560
▁드라마로	-18561
▁삼성전자	-18562
▁승리하였다	-18563
▁리우데자네이	-18564
▁신진	-18565
▁위조	-18566
▁제재	-18567
▁청량	-18568
▁함양	-18569
▁등번호	-18570
▁따르지	-18571
▁명예를	-18572
잉글랜드	-18573
▁시인이다	-18574
▁우에스기	-18575
▁기록했으며	-18576
▁미니시리즈	-18577
▁뱃	-18578
시안	-18579
활성	-18580
▁건륭	-18581
▁신원	-18582
▁엔트	-18583
▁책이	-18584
lass	-18585
▁리프트	-18586
▁사업의	-18587
▁전차를	-18588
▁즐기는	-18589
▁회사로	-18590
▁베네딕토	-18591
꾸로	-18592
버가	-18593
입을	-18594
▁겪게	-18595
▁낮고	-18596
▁상부	-18597
▁에른	-18598
▁초당	-18599
▁캐시	-18600
당하자	-18601
▁All	-18602
▁끌어올	-18603
▁나오게	-18604
▁미군정	-18605
▁분쟁이	-18606
▁세번째	-18607
▁주변을	-18608
▁처리를	-18609
▁파견된	-18610
▁아시아의	-18611
여자대학교	-18612
▁거부하였다	-18613
▁지속되었다	-18614
네오	-18615
파일	-18616
▁ML	-18617
▁당뇨	-18618
▁대덕	-18619
▁바울	-18620
▁배척	-18621
▁법이	-18622
▁분수	-18623
▁승하	-18624
▁예멘	-18625
▁패해	-18626
부분이	-18627
▁무사히	-18628
▁배우고	-18629
▁연관이	-18630
▁남베트남	-18631
▁살아가는	-18632
▁자택에서	-18633
▁평가받고	-18634
시킴으로써	-18635
▁수행하였다	-18636
▁통합되었다	-18637
▁프로그램에서	-18638
샤의	-18639
움에	-18640
희와	-18641
▁군중	-18642
▁울릉	-18643
▁윌슨	-18644
▁중원	-18645
▁칼슘	-18646
▁마을로	-18647
▁사진이	-18648
▁성립된	-18649
▁신설된	-18650
▁얻었고	-18651
▁위스콘	-18652
▁정교한	-18653
▁제후로	-18654
▁취하는	-18655
▁컴파일	-18656
▁통과한	-18657
▁퍼스트	-18658
▁회원이	-18659
▁만들었으며	-18660
▁요청하였다	-18661
니티	-18662
비한	-18663
샤오	-18664
지어	-18665
폭력	-18666
▁BM	-18667
▁군과	-18668
▁전대	-18669
▁종묘	-18670
▁출동	-18671
만명이	-18672
▁논란의	-18673
▁센터는	-18674
▁연달아	-18675
▁음반이	-18676
▁일원이	-18677
▁차트에	-18678
▁1873	-18679
▁이주하여	-18680
▁국회의원이다	-18681
팀과	-18682
▁배터	-18683
▁유태	-18684
▁진흙	-18685
▁징수	-18686
▁평야	-18687
▁구성요	-18688
▁병력은	-18689
▁상대를	-18690
▁원소를	-18691
▁인민군	-18692
▁입장에	-18693
▁주의를	-18694
▁지하에	-18695
▁키예프	-18696
▁패러디	-18697
▁패트릭	-18698
▁함대는	-18699
▁협회는	-18700
▁관계자는	-18701
▁부임하였다	-18702
▁추가적으로	-18703
▁쿄	-18704
▁구경	-18705
▁비어	-18706
▁성도	-18707
▁적발	-18708
▁주임	-18709
▁치즈	-18710
▁튼튼	-18711
부이다	-18712
▁GNU	-18713
▁담당한	-18714
▁독립한	-18715
▁드레이	-18716
▁면적이	-18717
▁선정된	-18718
▁속하게	-18719
▁조건에	-18720
▁지바현	-18721
년까지의	-18722
▁거주한다	-18723
▁탈락했다	-18724
▁교체되었다	-18725
▁중앙아메리카	-18726
대군	-18727
든가	-18728
창조	-18729
ool	-18730
▁데미	-18731
▁자처	-18732
▁조현	-18733
▁차고	-18734
▁천수	-18735
▁뒤에서	-18736
▁뜻하며	-18737
▁사상이	-18738
▁여성은	-18739
▁죽임을	-18740
▁튀르크	-18741
▁설정되어	-18742
▁미드필더이다	-18743
개소	-18744
보지	-18745
사자	-18746
소재	-18747
시카	-18748
▁모욕	-18749
▁임원	-18750
▁힘의	-18751
▁가졌고	-18752
▁고종의	-18753
▁나무로	-18754
▁밝혀져	-18755
▁비스타	-18756
▁상품을	-18757
▁소련군	-18758
[...]
